[PAD]
[UNK]
[START]
[END]
!
"
#
$
%
&
'
(
)
*
+
,
-
.
/
0
1
2
3
4
5
6
7
8
9
:
;
=
?
@
[
\
]
_
`
a
b
c
d
e
f
g
h
i
j
k
l
m
n
o
p
q
r
s
t
u
v
w
x
y
z
–
‘
“
”
the
to
of
and
in
that
is
for
it
as
be
on
are
with
by
but
not
has
have
will
this
from
more
its
their
an
us
they
at
would
or
was
which
than
world
countries
##s
china
can
one
economic
new
all
if
been
we
his
so
government
only
such
global
growth
other
there
even
also
should
no
when
most
could
about
who
political
now
many
people
these
what
europe
some
he
country
financial
were
years
european
may
economy
policy
must
over
while
international
do
time
into
much
had
like
states
long
out
up
year
them
because
first
after
crisis
public
power
united
trade
two
eu
those
market
president
state
well
between
how
trump
just
war
america
##ing
our
need
both
any
debt
today
against
change
national
russia
last
system
investment
high
development
far
term
leaders
bank
way
example
governments
since
less
too
indeed
social
own
markets
make
security
support
foreign
become
banks
rate
##ed
recent
central
interest
yet
health
still
where
policies
capital
important
chinese
future
military
nuclear
including
japan
rates
does
economies
india
being
through
american
energy
same
current
union
right
large
without
real
already
under
tax
germany
income
gdp
then
another
likely
iran
risk
might
end
##ly
made
monetary
major
work
given
take
fiscal
billion
good
better
climate
use
low
fact
prices
rather
among
often
problem
did
south
three
party
result
human
help
##d
middle
private
before
cannot
demand
part
why
sector
million
course
very
whether
around
order
oil
during
companies
north
moreover
region
institutions
based
increase
higher
least
second
eurozone
though
asia
east
africa
education
money
role
approach
few
free
labor
past
israel
next
obama
korea
back
minister
great
little
case
toward
developing
inflation
women
democracy
however
down
emerging
needed
needs
especially
business
short
thus
rights
election
agreement
clear
domestic
reform
rise
process
others
problems
price
spending
called
democratic
remains
means
almost
strong
you
costs
led
come
level
decades
france
growing
century
within
reforms
efforts
further
making
services
point
continue
despite
cost
longer
potential
west
different
peace
remain
law
currency
every
key
workers
seems
benefits
non
particularly
citizens
poor
best
control
exchange
##e
increasingly
western
recently
ago
population
put
administration
each
left
off
iraq
question
her
enough
prime
care
difficult
regional
share
life
used
greater
infrastructure
once
itself
members
politics
provide
regime
former
number
children
small
never
interests
terms
set
resources
value
according
history
putin
turkey
access
progress
my
research
strategy
society
effective
force
jobs
say
stability
technology
instead
third
data
reduce
face
local
risks
investors
ever
impact
place
challenges
euro
possible
lower
reason
finance
per
syria
perhaps
again
greece
action
common
conflict
fund
forces
half
rules
anti
rising
create
leadership
arab
community
issues
lead
early
together
russian
run
true
hard
member
deal
account
times
him
want
program
simply
poverty
five
know
##er
dollar
##a
across
un
significant
serious
credit
themselves
until
big
sense
##t
beyond
unemployment
nations
go
home
decision
ensure
old
levels
believe
measures
challenge
view
systems
get
able
see
##y
french
increased
general
food
firms
open
german
employment
decade
similar
require
threat
balance
full
day
british
budget
ukraine
cooperation
developed
issue
always
fed
find
federal
address
information
young
pay
productivity
deficit
self
success
advanced
rule
parties
turn
largest
areas
sustainable
britain
response
media
she
uk
post
plan
policymakers
seem
weapons
several
model
opportunity
##r
lack
water
start
conditions
working
##i
move
average
##n
leader
having
americans
consider
politicians
pressure
bush
defense
production
inequality
officials
campaign
focus
top
strategic
four
voters
imf
hope
civil
##o
supply
said
act
industry
return
banking
done
leading
pakistan
consequences
single
annual
changes
groups
group
italy
consumption
whose
created
taken
position
goods
effort
assets
effects
finally
requires
wealth
council
scale
doing
majority
news
largely
gas
structural
globalization
months
rich
failed
nearly
alone
ways
massive
think
emissions
although
main
influence
job
opposition
york
natural
programs
report
relations
powerful
##es
capacity
economists
fall
cause
rest
period
taking
innovation
exports
form
benefit
asian
revolution
either
debate
increasing
worse
failure
expected
makes
shift
lost
particular
achieve
decline
bring
violence
away
funds
lives
age
prevent
improve
governance
later
side
modern
began
aid
ability
month
agenda
carbon
owing
environment
nothing
bad
close
idea
elections
negotiations
sure
fear
give
keep
living
kingdom
total
japanese
evidence
experience
official
soviet
found
environmental
following
using
recovery
commission
ecb
necessary
nor
behind
taxes
seen
london
trillion
build
opportunities
comes
congress
solution
something
egypt
islamic
play
things
saudi
recession
industrial
corruption
traditional
goal
known
actually
palestinian
presidential
probably
effect
look
brazil
became
cities
highly
really
al
organization
corporate
avoid
building
protect
values
vote
technologies
rapid
soon
investments
house
clearly
step
reserve
hold
status
treaty
popular
class
kind
above
authorities
boost
legal
reality
larger
border
allow
mexico
african
integration
cases
coming
bonds
sanctions
freedom
huge
competition
attention
situation
fundamental
ten
afghanistan
held
reducing
individual
deficits
call
certainly
movement
powers
asset
land
limited
contrast
live
center
matter
late
currently
successful
muslim
established
goals
reach
city
collapse
outcome
wrong
quality
standards
include
financing
office
nato
took
millions
confidence
here
relationship
behavior
cut
stock
refugees
##ers
creating
line
science
israeli
management
concerns
easy
liberal
relatively
meeting
along
hand
produce
export
##l
products
school
mean
direct
critical
commitment
understand
external
everyone
meanwhile
donald
decisions
brexit
quickly
##al
projects
develop
fight
responsibility
elsewhere
words
paris
allies
offer
entire
meet
results
deep
worldwide
internet
latin
came
religious
businesses
weak
unlikely
washington
alternative
leave
authority
similarly
cuts
dangerous
basic
near
becoming
organizations
path
stop
recognize
beginning
technological
show
won
attacks
let
existing
target
caused
economics
independence
reasons
insurance
roughly
barack
court
relative
continued
performance
##able
service
framework
re
family
essential
thing
death
funding
gains
summit
company
raise
knowledge
six
below
helped
forced
secretary
overall
certain
source
ultimately
republican
university
days
era
project
##ness
positive
reserves
solutions
intervention
claim
disease
europeans
outside
brought
negative
maintain
personal
victory
proposed
sovereign
choice
saving
output
prosperity
additional
eventually
protection
manufacturing
austerity
indian
complex
sea
continues
forward
generation
spain
creation
men
independent
parliament
arabia
unfortunately
advantage
fuel
accept
available
consensus
factors
korean
driven
stimulus
##ism
zero
size
basis
moral
thereby
answer
ahead
allowed
greek
eastern
cold
crises
agreed
area
attack
individuals
fully
savings
amount
industries
communities
transition
consumers
provided
shared
related
required
xi
damage
wage
skills
don
ideas
sectors
effectively
flows
claims
throughout
societies
digital
stronger
concern
##ity
argue
matters
reduction
neither
increases
study
net
likewise
partners
wages
record
september
elected
willing
air
rapidly
facing
justice
loss
nature
borders
extreme
points
providing
questions
vision
ii
incentives
moment
##m
equity
property
households
thinking
me
talks
co
slow
regulation
surplus
##h
activities
grow
terrorism
consumer
politically
follow
housing
trust
aimed
cultural
drug
impossible
institutional
sometimes
widely
contrary
reduced
diplomatic
dollars
bilateral
internal
pursue
seeking
reached
gap
##on
events
competitive
gain
obvious
suggests
expect
thought
earlier
simple
loans
agreements
stable
child
initiative
responsible
turned
crucial
previous
expansion
wants
focused
significantly
appears
culture
coalition
fail
losses
parts
vulnerable
burden
trying
immigration
populist
followed
primary
special
secure
compared
directly
unless
game
core
intelligence
actions
understanding
plans
assad
begin
strengthen
seek
liquidity
regions
regulatory
whole
committed
treatment
establish
worth
chance
paid
army
trading
standard
nation
neighbors
wars
de
shows
imports
presidency
excessive
renminbi
scientific
communist
partly
warming
your
feel
produced
students
conference
difference
going
easily
save
clinton
pro
syrian
alliance
assistance
republicans
agree
models
serve
win
faster
pre
sources
therefore
lose
steps
welfare
white
anything
truth
demands
hamas
trend
whatever
historical
front
unlike
argued
respect
subsidies
book
promote
targets
man
reflects
argument
direction
encourage
uncertainty
biggest
vital
multilateral
terrorist
conservative
invest
seemed
constitution
depression
ground
range
announced
limits
theory
efficient
falling
##an
importance
mass
threats
wide
deliver
manage
migration
sides
extent
palestinians
himself
referendum
whom
december
quarter
reaching
road
push
safe
expectations
option
implement
kim
##u
safety
competitiveness
otherwise
urban
latest
abroad
november
try
specific
calls
anyone
lending
principle
provides
story
substantial
changing
legitimacy
doubt
farmers
vast
##ic
managed
training
immediate
various
achieved
poland
supported
favor
pacific
partnership
george
laws
promise
takes
shown
##rs
adopted
none
speech
built
iranian
profits
changed
principles
prospects
broad
commercial
merkel
tariffs
faces
becomes
green
improved
tend
##p
accounts
economist
ensuring
precisely
respond
##ation
bill
fighting
##c
limit
raising
unable
buy
thousands
press
severe
suggest
happen
northern
reflect
democrats
efficiency
enable
incomes
macroeconomic
whereas
merely
designed
cash
spent
argentina
tools
fast
running
spread
diseases
else
rural
agricultural
sovereignty
context
leaving
space
test
comprehensive
lebanon
easing
membership
drive
week
continent
round
fossil
armed
commodity
##g
giving
june
base
medical
normal
started
head
launched
march
southern
schools
establishment
stand
improving
boom
collective
electoral
payments
experts
fair
outcomes
spend
broader
democracies
capita
john
resulting
widespread
construction
generally
activity
board
household
opinion
regulations
helping
police
possibility
affairs
disaster
estimated
soft
drugs
went
promises
faced
resistance
creditors
families
happened
legislation
causes
islam
received
regard
coal
lies
mind
final
worst
##k
enormous
hit
libya
highest
operations
attempt
candidates
capitalism
prove
revenue
structure
universal
appear
message
closer
hundreds
differences
radical
republic
scientists
views
circumstances
considered
struggle
addition
goes
identity
looking
lot
sustained
absence
stage
everything
geopolitical
permanent
tensions
allowing
depends
associated
committee
getting
intellectual
productive
abe
constitutional
name
barriers
depend
practices
bankers
ethnic
mostly
th
agriculture
currencies
deeply
moving
danger
returns
asked
conflicts
fell
revenues
factor
remained
succeed
entirely
undermine
ended
usually
considerable
dc
ratio
cambridge
treasury
diplomacy
hands
task
added
owned
declared
instability
muslims
raised
tried
initiatives
smaller
bond
supposed
kremlin
nationalism
agencies
equal
subject
chief
erdo
present
strategies
percentage
unprecedented
upon
viewed
wall
##ized
cross
hardly
break
credibility
refugee
##ist
sharing
migrants
sunni
worked
borrowing
candidate
counter
due
sufficient
arms
choose
person
potentially
resolution
estimates
learn
receive
planet
ongoing
twenty
##in
hong
deaths
distribution
emerged
expand
involved
standing
suffering
##ment
advance
electricity
gender
conventional
forms
kong
analysis
rhetoric
ties
told
##less
gaza
nonetheless
sought
transformation
##ting
combined
measure
offered
generate
stands
priority
met
backed
weeks
gold
includes
contribute
mechanism
overcome
controls
greatest
heart
inclusive
july
online
supporters
medium
places
recognized
sound
##le
adjustment
seven
yes
addressing
am
body
mainly
cancer
equally
resource
scenario
trends
commitments
options
double
regulators
territory
achieving
estate
january
macron
quite
explain
mid
##izing
imposed
ireland
practice
slowdown
suffer
troops
afford
experienced
imbalances
implications
impose
ordinary
participation
played
positions
fallen
nationalist
add
agency
numbers
populations
proposal
everywhere
killed
lesson
restore
easier
fears
pace
regimes
street
implemented
##ization
cycle
implies
lessons
venezuela
actors
protests
sharp
type
strength
cutting
decided
gone
rely
immigrants
proved
violent
wing
##ize
amounts
spring
strengthening
twentieth
inevitable
planning
studies
perspective
sharply
eight
enterprises
join
vladimir
degree
lines
foundation
leverage
mechanisms
appropriate
affect
beijing
corporations
expensive
ruling
default
driving
objectives
patients
truly
virtually
visit
##z
joint
belief
clean
fuels
language
affected
continuing
learning
secular
senior
islamist
talk
typically
dynamic
promised
underlying
declining
developments
aggregate
girls
hopes
maintaining
pursuing
sub
wanted
authoritarian
debts
movements
active
ask
critics
elites
networks
blame
defined
determined
immediately
learned
turkish
ministers
parliamentary
transparency
##ate
economically
bringing
deflation
opponents
reflected
works
expanding
assembly
bear
desire
regardless
causing
physical
sustain
believed
holding
sign
credible
figure
prospect
resolve
starting
fourth
fueled
peaceful
supporting
engage
event
october
poorest
producers
ready
objective
quantitative
fortunately
mistake
combination
imagine
keeping
turning
destruction
heavily
shia
described
guarantee
vietnam
##ts
proposals
shape
paying
relief
deeper
offers
solidarity
##ry
carry
determine
knows
opening
prepared
promoting
##or
bottom
field
gave
race
team
putting
apparent
canada
starters
surely
generations
investing
occurred
relevant
technical
room
style
transfer
##ous
bubble
decide
indonesia
light
observers
published
summer
assume
firm
profit
complete
losing
temporary
worry
excess
represents
robust
australia
heavy
qe
choices
humanitarian
playing
youth
dialogue
divided
exactly
list
product
singapore
establishing
exit
jewish
minority
seriously
concerned
dramatically
flow
victims
equivalent
journalists
purpose
april
sell
aim
chancellor
leads
stagnation
defend
institution
ones
useful
##ia
##us
innovative
##st
adopt
partner
pollution
restructuring
setting
formal
gained
palestine
discussion
essentially
looks
territorial
battle
thanks
accepted
encouraging
equality
issued
malaria
surprise
elite
modi
##en
crimes
liberalization
mention
track
universities
##ling
friends
pension
unique
employees
healthy
opposite
previously
fewer
meant
trouble
defeat
##f
demonstrated
network
paper
sustainability
arrangements
asean
requirements
signed
annually
failing
grown
possibly
processes
bound
securities
contributed
players
##ce
##ted
compromise
design
showed
earth
dramatic
begun
billions
controlled
hiv
host
necessarily
proliferation
represent
happens
included
presence
volatility
willingness
hours
moved
occur
renewable
italian
reported
taiwan
intended
urgent
priorities
remaining
review
solve
taliban
ambitious
inadequate
purchases
settlement
closely
executive
figures
representatives
understood
constraints
perceived
cyber
greenhouse
legacy
embrace
ending
humans
managing
mandate
moderate
religion
signs
structures
august
meaning
nobel
protecting
targeted
towards
##ian
extremely
##ar
calling
dependent
reports
says
supreme
unsustainable
berlin
born
concluded
congressional
import
producing
brussels
engagement
enabled
genuine
integrated
introduced
pattern
tpp
emergence
gulf
shocks
gradually
legitimate
costly
historic
mark
ban
boosting
promising
survival
wave
addressed
dominated
educational
incentive
kept
criticism
implementation
launch
missile
remarkable
sarkozy
##ion
index
linked
restrictions
solar
california
faith
identify
recognition
suffered
terrorists
threatened
capable
emerge
##b
aggressive
populism
shock
##te
adequate
exist
oecd
yield
approaches
centuries
cheap
quo
served
tech
undermining
eliminate
emergency
ideological
researchers
criminal
stake
surprising
capabilities
educated
fire
humanity
pushing
russians
saw
transactions
votes
wake
grew
##ated
globally
norms
minimum
nowadays
risky
aids
confront
terror
zone
##ge
finding
doesn
revolutionary
someone
stance
tell
black
civilian
fixed
harm
opposed
pushed
red
replace
carried
drop
forum
daily
department
weakness
england
mobile
plants
jews
netanyahu
profound
qaeda
accounting
cover
intensive
threatening
exception
logic
nigeria
pressures
preventing
strike
smart
##ch
##ists
homes
modest
operating
rejected
scope
tough
withdrawal
apply
chile
contracts
exposed
repeatedly
##ging
compete
earnings
fate
oriented
species
survive
progressive
series
transfers
advances
concept
dream
primarily
sentiment
completely
february
ignore
suggested
welcome
borrow
empire
senate
via
wrote
crime
deals
latter
mission
genetic
institute
negotiating
realize
##ating
chairman
nineteenth
obviously
sales
search
substantially
conducted
david
holds
polls
appeal
presidents
taxpayers
users
fragile
georgia
harder
mere
practical
reasonable
steel
aging
expense
explanation
speak
stay
ideology
nine
notably
paul
reverse
accompanied
delivered
failures
offset
operate
strongly
disputes
innovations
rose
coordination
financed
governing
engaged
implementing
initial
narrative
wider
woman
alike
allows
attempts
illegal
multi
sort
budgets
contributions
facts
aside
charge
elements
expanded
ownership
parents
##ra
attractive
iraqi
material
sweden
##ary
buying
enabling
governor
mutual
package
warned
weaken
wealthy
appreciation
mainstream
turmoil
unity
weaker
wto
accountability
felt
obligations
regarded
vice
actual
newly
offering
publicly
uncertain
managers
speed
subsequent
tb
declaration
died
link
released
supplies
##ns
statement
die
invasion
attract
effectiveness
bold
discussions
inflows
television
inevitably
transport
claimed
dispute
enhance
examples
nominal
platform
consistent
escape
phase
undoubtedly
barely
counterparts
coverage
creates
demographic
ocean
slowly
weight
##led
centers
closed
interventions
moscow
##man
association
bankruptcy
devastating
functioning
arguments
broadly
bubbles
contain
enter
father
flexibility
populists
protectionism
rarely
sheet
chemical
female
hezbollah
mortgage
staff
systemic
threaten
contribution
convinced
flexible
##ies
applied
cameron
delhi
killing
leaves
narrow
voted
balanced
declined
fundamentally
seemingly
christian
donors
facilities
wind
bailout
colombia
generated
ill
israelis
participants
placed
professional
taxation
extend
gives
##ble
divide
islands
negotiate
purchase
refused
ruled
viable
voting
joined
momentum
shifting
vis
##is
affordable
apparently
corrupt
isis
passed
surpluses
twice
ambitions
computer
measured
posed
tests
warning
weakened
##ful
academic
conclusion
dominant
trial
variety
yields
diverse
encouraged
jordan
dead
diversity
engineering
hungary
initially
kenya
pakistani
survey
word
ally
assessment
retirement
successor
approval
article
chains
customers
returned
stress
struggling
valuable
displaced
organized
replaced
yemen
demonstrate
director
expressed
facilitate
patterns
pointed
pursued
furthermore
thirds
communism
decisive
extra
periphery
protest
relationships
renewed
saying
stem
successfully
waste
coup
exercise
got
revealed
stories
surge
adjusted
chronic
plenty
sent
soldiers
wisdom
acting
apart
demanding
extended
netherlands
philippines
predict
##tic
multiple
policymaking
weakening
bigger
older
portugal
resilience
winning
atlantic
imperative
provision
reagan
rescue
shareholders
travel
brain
concerning
courts
frequently
specifically
table
angela
improvement
reaction
responses
weather
cars
convention
correct
egyptian
instruments
mobility
statements
supposedly
##re
destroy
island
##ive
except
fifth
helps
hunger
ideal
keynes
nevertheless
resulted
advocates
function
guide
jinping
king
lacks
raises
reliable
condition
damaging
knew
painful
purchasing
simultaneously
uses
focusing
selling
suddenly
talent
##ant
badly
entrepreneurs
facebook
harvard
platforms
transparent
vaccines
version
##ally
capture
false
robert
showing
tariff
abuse
bangladesh
debates
funded
image
rulers
treated
abandon
advice
block
happening
regarding
shifts
compensation
marked
secondary
accelerate
adverse
alternatives
combat
downturn
inclusion
lasting
mistakes
peak
sexual
advantages
materials
operation
rational
read
sheets
aftermath
argues
consolidation
dealing
google
historically
representative
secret
believes
benefited
carefully
discrimination
ethical
guarantees
heads
kinds
participate
statistics
downward
properly
reliance
stopped
trigger
triggered
lived
methods
root
somewhat
surprisingly
transform
borrowers
consequence
forcing
maintained
meaningful
pain
perfect
square
usual
##est
chaos
colleagues
complicated
component
depreciation
doctors
eyes
identified
minorities
sdgs
spanish
tool
challenging
characterized
confrontation
germans
indicators
justify
limiting
prosperous
runs
scheme
shares
tradition
unconventional
voice
worried
aims
enforcement
imposing
original
send
treat
ultimate
assumed
charges
occupation
partnerships
prize
streets
vaccine
asylum
car
connected
fueling
monopoly
moves
phenomenon
responsibilities
write
attempting
blood
fails
haven
impressive
improvements
plant
polish
proportion
concrete
considerably
copenhagen
discipline
neighboring
obstacles
openness
pass
stimulate
threatens
artificial
brings
civilians
equipment
extraordinary
generating
grounds
opened
proper
skilled
strengthened
unions
vehicles
conduct
grand
kosovo
lie
loan
prefer
surveillance
tunisia
undermined
atmosphere
consistently
ignored
ministry
overwhelming
planned
proven
sum
##ty
aware
bodies
meetings
mubarak
outlook
##w
brutal
informal
invested
minds
predicted
succeeded
wait
wonder
dependence
gets
pose
protected
recognizing
saharan
skill
workforce
##se
brotherhood
enjoy
medicine
outright
rooted
thailand
anniversary
draw
enemies
manner
missing
trans
##ring
brics
didn
drawn
famous
persistent
residents
responded
types
##ine
blair
creative
gaining
remember
myanmar
noted
accused
content
insist
presented
separate
targeting
transformed
trap
contract
experiencing
sophisticated
stocks
##ors
##ping
birth
greatly
saddam
avoiding
mental
recover
activists
adapt
games
notion
peninsula
preserve
prison
resist
written
cuba
imperial
negotiated
oppose
repression
communication
heard
payment
severely
spirit
chain
collapsed
expenditures
exporters
manipulation
tightening
appeared
emphasis
employers
poorer
slightly
trials
enhancing
estimate
kurdish
rare
serving
sudan
avoided
patient
retain
sensible
slower
slowing
southeast
tragedy
##v
analysts
assumption
commit
dangers
dominance
enemy
pact
poorly
tackle
considering
crash
crimea
links
perception
broken
realistic
socialist
wellbeing
##ding
happy
insufficient
inter
pressing
prolonged
risen
animals
berkeley
brothers
deposits
destroyed
earn
english
labour
transatlantic
wish
backing
careful
caught
extremists
involve
involvement
prepare
protectionist
son
ai
compelling
dutch
entered
inside
mediterranean
college
le
picture
reductions
rightly
urgently
##nt
expertise
involving
isolation
spur
sudden
unemployed
##it
anger
approved
backlash
cyclical
date
directed
dropped
machines
malaysia
motivated
pharmaceutical
shanghai
granted
rebalancing
requiring
##tion
bashar
mexican
ourselves
provisions
represented
acknowledge
ch
code
confronting
contributing
fields
friendly
jerusalem
kill
qatar
transportation
determination
favorable
feeling
influential
machine
prior
resort
tokyo
advisers
dictatorship
features
guaranteed
mounting
poses
seats
##ent
albeit
evident
legislative
liabilities
monitoring
nowhere
##ma
feature
minded
mitigate
reluctant
strikes
acts
awareness
competing
conservatives
eliminating
ends
evolution
foreigners
hitler
imply
internationally
madrid
quick
sooner
turns
catastrophe
eager
ease
interested
neo
openly
saved
communications
destructive
engine
fulfill
hour
missiles
prominent
shale
vulnerability
watch
##ng
cabinet
doctrine
falls
fill
foster
headed
numerous
peoples
roads
seeks
shadow
adopting
dark
executives
gradual
prevention
sex
underway
vez
##ned
anywhere
beneficial
constant
deepening
difficulties
finances
fresh
restoring
rival
stabilize
traditionally
web
##ke
abandoned
achievement
background
el
foundations
match
quarters
reject
removed
##ck
art
enacted
extremism
hurt
marine
sensitive
abbas
cells
count
memory
modernization
ranging
##el
##th
##ur
attitudes
command
comparable
define
delay
feed
##ll
accountable
actively
couple
expression
keynesian
league
politician
reputation
testing
##at
breaking
expenditure
fundamentals
projected
sold
upcoming
autonomy
controversial
explained
extensive
indicate
intervene
male
retail
software
stood
volatile
withdraw
absolute
asking
camp
chair
generous
inefficient
onto
student
afghan
assess
bernanke
binding
prevented
pricing
problematic
pursuit
repeated
signal
sites
speaking
tens
waiting
##ities
anxiety
begins
coordinated
discuss
flight
jong
kurds
naturally
resolved
weapon
acceptable
adding
alongside
bomb
books
campaigns
chose
deng
dilemma
insecurity
closing
collaboration
concentrated
crops
desperate
disasters
electorate
erupted
halt
lowest
morsi
struck
unfair
##ped
##um
murder
norway
release
reversed
striking
unit
##il
adoption
alliances
division
dynamics
hillary
importantly
park
persuade
propaganda
sets
stalin
visible
ancient
arguing
catch
convergence
kennedy
mix
mortgages
optimistic
purposes
respectively
ukrainian
acute
cheaper
denmark
existence
famously
inability
inspired
looked
mortality
plays
scotland
stated
volume
adjust
animal
announcement
chances
constrained
discussed
entry
fellow
love
optimism
pensions
puts
qaddafi
ranks
supports
##ged
arrangement
dominate
ebola
facto
##red
##sh
balances
conclude
details
farm
lenders
moon
performing
periods
reinforced
tradable
accession
assuming
claiming
divisions
nazi
pen
sufficiently
unwilling
##x
##ze
enhanced
heat
hollande
islamists
marriage
relying
steady
tobacco
##et
burma
earned
exists
explains
familiar
flawed
isn
panel
predictable
richer
shifted
##as
affecting
judges
millennium
princeton
toxic
treaties
##ning
accelerating
amid
constructive
delivery
donor
enforce
forecast
integrity
judicial
justified
plus
stakes
##ro
##ter
accord
judgment
observed
reconciliation
settlements
achievements
arise
edge
gaps
giant
hence
inflationary
owners
remove
serbia
solid
yen
##ish
convince
nutrition
cell
commerce
criteria
delivering
door
exposure
facility
lend
ratios
route
tactics
teachers
twitter
ultra
arabs
aspirations
catastrophic
channel
classes
likelihood
reporting
switzerland
younger
accurate
bloc
career
challenged
channels
commodities
drawing
embraced
introduce
mother
procedures
reinforce
securing
unilateral
versus
##na
circle
considerations
devaluation
elect
informed
realized
talking
blow
contemporary
evil
foremost
indians
intense
regular
supervision
unstable
weaknesses
attempted
deny
employed
gates
lowering
marginal
sectarian
shortages
somehow
territories
africans
confident
distant
enterprise
eye
fix
guard
mobilize
principal
realities
computers
deserve
dioxide
disastrous
doubts
fatah
formed
joining
laureate
slowed
upward
##nce
##ne
aspects
citizen
element
exceed
finds
investor
map
rating
reduces
resilient
##ve
bolster
electric
entering
findings
fine
founded
geneva
regularly
telling
automation
chosen
components
denied
enables
experiment
hoped
namely
nobody
receiving
revive
steadily
tons
##ier
accordingly
concessions
definition
demanded
equilibrium
investigation
lacking
resolving
seeing
shaped
threshold
##os
antibiotics
ben
bit
bureaucracy
comparison
cooperate
difficulty
driver
ethiopia
happiness
ineffective
judge
losers
overseas
produces
providers
senator
urbanization
adjustments
arguably
cast
confronted
cooperative
cope
differently
mutually
newspaper
nixon
professionals
rejection
surrounding
altogether
competitors
corporation
cyprus
disruption
existential
fit
forests
neighbor
revolutions
soes
temperatures
tendency
deposit
dignity
fought
medicines
assumptions
colonial
decent
defending
desirable
dire
eliminated
forest
genes
multinational
panic
tension
trained
trip
worker
##les
camps
creditor
isolated
jean
mao
musharraf
predecessor
refuse
schemes
typical
understandable
worrying
austria
bills
criticized
customs
expansionary
fairly
feasible
hospitals
irish
khamenei
maybe
popularity
pragmatic
predecessors
prevailing
recognizes
river
suicide
tends
destabilizing
hostile
lehman
liberals
privacy
reconstruction
responding
significance
somalia
underpinned
##ably
ahmadinejad
berlusconi
cap
concentration
experiences
express
genocide
liberty
meantime
protocol
upper
advocate
appointed
belt
davos
discovered
dna
explicitly
hot
james
origin
pledged
##age
attitude
bridge
emphasized
ethics
followers
judiciary
lift
preferred
pull
resistant
selection
strongest
unrest
dynamism
explicit
favored
gross
implying
patent
reflecting
bargaining
check
complexity
crop
fish
frequent
median
mothers
note
returning
romney
rouhani
zones
adults
alleged
appreciate
disruptive
forecasts
officially
plausible
refusal
relies
richard
socially
##ds
##ta
accounted
blamed
character
diplomats
exacerbated
implicit
initiated
introduction
lay
occupied
polio
remote
straightforward
virus
widening
woods
##land
##ls
absorb
coherent
draghi
emphasize
follows
friend
hear
honor
hundred
imported
involves
iron
nafta
neighborhood
sight
whereby
abuses
accelerated
acquire
charter
declines
governmental
holdings
odds
phone
pledge
preparing
redistribution
suggesting
train
##ical
acceptance
constitute
desperately
disorder
fired
grave
intention
negotiation
obtain
ran
ratings
rwanda
safer
summers
##de
##ded
ambition
forget
god
infectious
koreans
livelihoods
parity
ronald
serves
shaping
tasks
tourism
ceo
contraction
extremist
hussein
parallel
reinforcing
revival
storm
toll
wise
adviser
biodiversity
captured
convincing
duty
engaging
focuses
governed
greenspan
induced
integrate
laid
minimize
morocco
newspapers
pboc
preferences
seize
troubled
unexpected
##ie
acknowledged
administrative
applications
bias
breakthrough
capitalist
exploit
football
frank
makers
recorded
shortage
voices
##ability
##ial
bretton
clinical
devices
gene
headlines
immigrant
kyoto
player
star
treatments
tsunami
vicious
violations
accumulation
attend
cup
deregulation
earthquake
illiberal
implied
mood
perform
protesters
settle
voluntary
winners
writing
##me
cycles
deputy
innocent
intentions
looming
mixed
precedent
stakeholders
surface
temperature
town
whenever
apple
consideration
govern
hedge
landscape
margin
meltdown
obstacle
pride
quest
roots
san
stuck
tested
tolerance
trajectory
waves
##ld
absent
affects
allocation
bid
bjp
bought
degrees
denominated
epidemic
exporting
interesting
interpretation
maritime
thatcher
triumph
tv
accepting
checks
courage
disarmament
drivers
enjoyed
film
freely
portfolio
rice
royal
shinzo
site
situations
valley
waters
winner
##id
##ps
buildings
charged
civilization
constantly
describe
devoted
frameworks
fran
fulfilling
highlighted
houses
outbreak
province
roles
solving
successes
##ified
arrest
bin
ecosystems
founding
francis
indicates
officers
persist
rebuild
rome
sending
speculation
anemic
bet
confirmed
contained
deployed
elderly
emotional
expectancy
highlights
images
industrialization
occurring
polarization
reading
speculative
stabilizing
terrible
##ka
aggression
biological
church
classic
deemed
defeated
diminished
doubled
fraction
harsh
hegemony
mario
pays
permit
raw
richest
roosevelt
split
tomorrow
veto
ali
detailed
enduring
exclusively
frustration
hostility
landing
protections
representation
scarce
sdr
##der
cohesion
completed
fairness
feared
foreseeable
immense
lawyers
meat
restored
stabilization
traffic
##aries
##ton
applies
carrying
engineers
expert
factories
globalized
signals
super
visited
warfare
cultures
distributed
fashion
ironically
letter
monitor
premier
recall
regulate
##ance
##ians
broke
ceiling
conservation
enlargement
functions
legally
method
overwhelmingly
piketty
scholars
shut
sustaining
undermines
undertake
virtual
##ence
aircraft
angry
arrested
availability
contagion
entrenched
generals
indebted
magnitude
maximize
multilateralism
poll
psychological
teams
venture
agents
appealing
architecture
compliance
distinct
fishing
forever
illness
interference
mahmoud
negotiators
offensive
oversight
prisoners
privatization
promotion
regulated
scenarios
solely
storage
suit
temporarily
transforming
##tes
advancing
attacked
bargain
ccp
consume
deleveraging
eventual
firmly
guidance
hidden
pan
requirement
sake
spreading
##ah
alive
answers
assault
demonstrations
entities
malaise
partisan
scandal
seat
sees
soil
uranium
##ons
##sed
collateral
compensate
deflationary
disintegration
drove
endorsed
equipped
farming
fastest
forgotten
hospital
ignoring
inputs
irrelevant
lisbon
notable
ois
oxford
peer
presumably
regain
rivals
shortfall
tight
unacceptable
wife
arrived
blind
chicago
comparative
harmful
intent
named
occurs
proof
racial
respected
reversal
seoul
soared
spoke
stems
tiny
village
##tive
admit
brand
bureaucratic
childhood
coast
czech
declare
depending
deterrence
discontent
honest
liberation
night
npt
profile
reckless
seekers
shortcomings
shrinking
sino
strict
transmission
##ious
defining
deployment
display
excessively
flaws
grows
imbalance
indispensable
instrument
myriad
prevailed
rebels
vested
worries
##men
blocked
choosing
collection
connection
departure
derivatives
doha
miles
paradox
spiral
starts
temptation
tribal
units
unknown
##da
anticipated
beliefs
collectively
commentators
controlling
distance
exacerbate
frontier
novel
reward
robots
safeguard
thousand
thrive
translate
authors
blue
bust
catholic
cure
degradation
dismissed
dozen
dysfunctional
emmanuel
fighters
holocaust
juncker
krugman
lately
orderly
orders
peru
pound
proud
punishment
reforming
routine
silence
unified
yanukovych
##son
ambassador
application
attracted
consolidate
deepen
discovery
draft
evolved
hike
insisted
manufacturers
missed
philosophy
precise
sanitation
silicon
sri
sugar
##co
abenomics
accident
arsenal
biology
demise
distinction
equitable
fdi
normally
opposing
ought
profitable
sit
soaring
stemming
##ties
acquired
akp
approaching
benefiting
countless
discourse
excluded
filled
gathering
impede
nets
pipeline
pool
pope
predictions
professor
rein
replacing
sciences
spurred
suspicion
tied
tragic
unnecessary
victim
aged
approximately
behave
bombing
carries
consent
eat
entitled
munich
obligation
pick
promoted
reportedly
store
tempted
##ening
##sing
##ves
ample
boundaries
brown
censorship
churchill
compare
delayed
diminishing
downside
drought
dying
factory
genuinely
lee
minimal
purely
recovered
remarkably
saudis
subsequently
surprised
transnational
tremendous
unpopular
##ify
accumulated
bloody
closest
connections
denial
efficiently
entails
exchanges
gases
midst
nationalists
ngos
originally
phones
reasonably
representing
retreat
struggles
suppliers
uphold
villages
warnings
wwii
##ms
##tor
aspect
combine
damaged
deadly
demonstrates
destroying
erosion
knowing
naval
olympic
operational
reveal
sports
substitute
taught
theories
unpredictable
vacuum
##up
bailouts
charles
club
continental
crowd
disparities
ecological
engines
fake
finland
fragmentation
indigenous
macro
premium
prone
relied
removing
resentment
sphere
symptoms
viktor
ballot
brazilian
cairo
capability
embedded
financially
foods
indicator
irresponsible
notes
preserving
sacrifice
shot
stark
surveys
tony
##rated
allocated
centralized
comprise
determining
differ
dozens
ecosystem
ex
horizon
ice
incumbent
inherited
liability
liberalism
michael
minor
norm
participating
passing
placing
prevail
techniques
torture
traders
unclear
undertaken
##ide
acted
assumes
bulk
comfortable
distinguish
entrepreneurship
exceeds
extending
overnight
printing
recessions
rises
tackling
timing
watching
wins
##la
##om
##sts
characteristics
civic
containment
covered
diagnosis
electronic
encourages
grievances
hikes
infected
intellectuals
issuing
johnson
nicolas
overly
premature
qualified
rally
scrutiny
silent
stagnant
superpower
welcomed
alarming
behalf
burning
cambodia
condemned
creativity
disruptions
distortions
enthusiasm
expectation
forge
golden
justification
kilometers
located
mdgs
misguided
paradigm
repeat
strain
tide
winter
##im
##line
accomplished
algeria
calm
centered
confined
democratically
excuse
facilitating
grant
hire
identities
iranians
kerry
liquid
loyalty
marks
recommendations
roma
suffers
triggering
##ible
assessing
bureaucrats
crude
escalating
exceptions
fragmented
graduates
inequalities
normalization
overcoming
projections
restraint
seized
subjects
topic
##out
abandoning
adequately
amendment
boosted
citizenship
dimension
distrust
enrichment
entail
error
exclusive
futures
joseph
locked
militants
possibilities
sun
treating
unusual
##am
##king
##ual
adaptation
amounted
automatic
barrel
brief
brink
champion
cognitive
diminish
distress
freedoms
friedman
grasp
guidelines
interim
invited
launching
merit
mining
misleading
partial
ranking
records
request
statistical
superior
suspect
traditions
window
##ks
advocated
bail
bosnia
cited
coastal
constitutes
depressed
disrupt
extension
fertility
fold
frustrated
gordon
guided
hate
immune
migrant
ordered
reference
renewables
savers
singh
thomas
transaction
##sm
bondholders
clash
debtor
deter
fraud
gun
introducing
irrational
marginalized
neutral
performed
proclaimed
roll
scientist
tenure
##ey
##ler
aggressively
cia
discourage
entity
escalation
exclusion
formally
hu
ignorance
inaction
insurgency
lanka
lifted
likes
outflows
outlets
reminder
rewards
routinely
sale
skeptical
stations
##ir
##ov
##ure
##ut
basket
bearing
decisively
extends
fees
ghana
infections
listen
mckinsey
reflection
spectrum
spreads
succession
thinks
unequal
urgency
vary
##ad
##ates
##ner
##pe
actor
automatically
bolivia
breakdown
card
cards
curb
debtors
deliberately
embracing
experiments
feelings
grid
hoping
incomplete
keeps
lender
massacre
pivot
sole
tibet
traded
unite
##ants
##ments
##ung
box
burdens
christians
depth
drag
dubious
emerges
intensified
luxury
object
phrase
producer
ve
alter
autocratic
benign
borrowed
dictator
environmentally
evolutionary
favors
gotten
insights
iraqis
lebanese
micro
orb
physics
piece
poised
proxy
recep
revived
seas
st
tayyip
##bly
##istic
##ological
accessible
assert
atomic
balkans
budgetary
calculations
cautious
daunting
diabetes
elimination
exemplified
founder
greeks
hiring
industrialized
influenced
inspire
intensity
literally
maduro
miracle
personnel
sanders
secured
skepticism
soccer
sounds
stages
stick
teaching
unilaterally
##ters
##ue
##zing
domestically
flood
loose
mega
motivation
protracted
receives
reconcile
reveals
spends
voter
composition
comprising
connectivity
contest
disagree
favorite
formula
habits
handed
interconnected
intergovernmental
medvedev
permanently
pis
pundits
scheduled
semi
solved
teach
##rate
advertising
autonomous
banned
basel
bipartisan
complacency
connect
denying
devise
empirical
evolving
highlight
impoverished
inherent
municipal
myth
native
nazis
neglected
outsiders
rebel
seeds
separation
spectacular
symbolic
tactical
underground
vibrant
wary
wild
##ations
abu
array
bay
belgium
blocking
counterproductive
empowered
episode
formidable
forth
grants
hide
historian
illusion
impression
journalism
longstanding
maternal
mayor
miss
notwithstanding
obamacare
page
postwar
propose
psychology
repay
repeal
socialism
sunnis
symbol
unification
##ient
##ite
##ology
applying
attributed
audience
bases
burst
certainty
clients
collect
combating
compact
contains
conviction
deploy
feels
flat
governors
hatred
heading
impunity
lacked
luck
microsoft
narratives
neglect
occasion
offshore
perceptions
puerto
recommended
restrict
revised
satisfy
sharon
skeptics
strange
stream
tuberculosis
worsening
yeltsin
##bility
##pa
##rating
##ri
abortion
attracting
clout
concerted
conclusions
disproportionate
documented
exercises
franco
grip
immunization
inward
laden
logical
names
paralysis
permitted
philosopher
profitability
removal
sachs
sponsored
systematic
tanks
thaksin
zimbabwe
##ang
##ca
##hip
##ol
agendas
amazon
appeals
baby
demonstrating
disappointing
dividends
exceptional
fluctuations
formation
militias
poles
proponents
refusing
replacement
sheer
swedish
uganda
understands
vehicle
witnessed
zealand
##cing
##ering
academics
admitted
considers
disputed
dodd
empower
freeze
ipcc
keen
lifetime
monthly
morality
portion
practically
profession
pure
radio
sitting
trapped
vienna
xiaoping
##cy
activist
arafat
arbitrary
author
coordinate
criminals
dangerously
defaults
deliberate
deserves
disappeared
disturbing
empty
endless
enforced
fault
heightened
holders
imminent
indication
items
journalist
la
lifting
maintains
nomination
pretty
probability
proceed
radically
rationale
recipe
repair
respective
settled
stanford
troika
upgrading
vastly
##j
abundant
annexation
benchmark
buyers
containing
covering
disappear
discredited
equities
examine
healthier
journal
kazakhstan
opponent
orthodox
perfectly
provinces
reasoning
resisted
sadly
stressed
swiss
tells
venezuelan
##ct
##uring
aligned
allegedly
arctic
averaged
bitter
bombs
booming
counterpart
diet
factions
genome
grim
haiti
handle
inflicted
mindset
music
notice
obesity
overthrow
punish
staggering
subsidy
tangible
tea
vulnerabilities
wasted
worsen
##li
##ot
##ral
accomplish
adult
appetite
aren
beings
breakthroughs
centrist
coalitions
democratization
disproportionately
errors
explosion
giants
historians
hurricane
imagined
location
organize
peripheral
reluctance
rigid
successive
survived
tougher
ttip
##bs
##med
##ud
addresses
believing
borne
declaring
drives
fortune
fostering
gather
generates
handful
indicated
intensify
interaction
li
packages
pervasive
restricted
rock
smith
wen
wherever
arm
authoritarianism
avert
ballistic
construct
continuous
enlightened
eradication
euros
exploitation
identifying
indirect
insight
maynard
pillar
processing
readily
sick
slogan
transitions
##ans
##che
##ki
align
amr
arrive
brother
cliff
episodes
floods
helpful
henry
hindu
invariably
limitations
memories
militarily
mired
northeast
outstanding
prudent
rejecting
rethink
technocratic
trusted
violation
ad
cuban
daughter
dedicated
deforestation
diversification
doubling
droughts
hungry
istanbul
malnutrition
marketing
marshall
oceans
opec
optimal
rests
reversing
schooling
speeches
suppose
trafficking
##ification
##un
australian
breaks
chirac
contact
defeating
deteriorating
durable
eurobonds
exploited
facilitated
flowing
gandhi
incapable
margins
outrage
ports
pressed
proposing
safeguards
sweeping
underestimated
vague
##ba
##ened
##ley
adhere
commonly
complaints
corner
coupled
despair
deterioration
document
duties
essence
geography
goldman
il
letting
mainland
manufactured
martin
mentioned
mess
penalty
pillars
preference
rampant
referred
rivers
scene
shrink
signaled
stalled
towns
troubling
underpin
unintended
unleashed
ups
yellen
yugoslavia
##well
cumulative
decrease
dictators
disagreements
dismiss
egyptians
emulate
erode
eroded
expects
farms
height
mistrust
offices
possess
potent
quotas
react
remittances
reviving
romania
studied
tolerate
video
##io
##ris
arises
attacking
bears
beneficiaries
bitcoin
ceos
conversation
disagreement
dividend
franklin
implication
infection
lands
linking
maximum
patents
preventive
prompted
rico
selected
smoking
smooth
swap
tone
undergoing
vaccination
wasn
##ative
##back
##res
aiib
annan
assessments
auto
baghdad
boe
bridges
drone
emission
enact
everybody
humiliation
hungarian
insisting
mali
overlooked
parliaments
prudential
ships
silver
uncertainties
wouldn
##ee
##ver
abdullah
appearance
athens
breakup
category
destination
fronts
ideals
interdependence
journey
jump
liberties
lula
maintenance
origins
ostensibly
pockets
port
ratified
restricting
spoken
texas
tighter
valid
witness
##iness
##ins
activism
caution
clarity
compromises
cynical
deciding
defensive
feet
italians
literacy
mandatory
mini
realizing
revolt
rio
satellite
struggled
suited
technocrats
trees
withstand
##ny
##que
##use
accommodate
administrations
ages
asians
balancing
behavioral
dissent
documents
induce
interactions
invented
jurisdiction
ministries
mumbai
necessity
nightmare
ottoman
plight
positioned
prevents
quantity
quiet
ranked
reactions
reap
respects
reunification
strategically
urged
utterly
##ina
##ries
affair
atrocities
breast
brexiteers
careers
ceasefire
circles
comfort
consuming
controversy
displacement
emotions
emphasizes
entrepreneurial
excesses
feedback
francisco
gasoline
gorbachev
inherently
intensifying
irony
judged
judging
lethal
lobbying
mikhail
pointing
presents
publication
resolutions
ride
scarcity
silk
sluggish
somewhere
thin
touch
triple
understandably
unresolved
##ator
##dy
##fully
##ily
##one
accurately
accusations
assured
baltic
bannon
beat
cease
celsius
confirm
decentralized
earning
ecuador
employ
exceeded
fires
fruit
grids
hardest
imperfect
integral
maastricht
master
minutes
motives
olympics
orthodoxy
prince
privileged
proposes
reformers
responsive
revelations
segments
sentiments
slump
speaker
spot
statehood
strengths
sums
suppress
swing
trillions
universe
##ard
##ars
##ibility
##tors
##ulate
alan
assassination
axis
booms
clearer
comments
contentious
desired
evolve
excellent
expose
floor
ideally
intelligent
realism
rent
restoration
roman
scores
text
therapy
tighten
##des
##ions
advised
anyway
attraction
bleak
boston
caribbean
celebrate
chen
collected
concentrate
credits
endured
ensures
explanations
fallout
glass
heed
incremental
injustice
lesser
leveraged
mandela
masses
milan
motion
passage
plummeted
provoke
residential
retaliation
salaries
sinai
sixth
stalemate
stopping
technically
throw
walk
warsaw
##cs
##to
agent
anticipate
assist
casualties
committing
communicate
conditional
district
districts
dreams
exploiting
gazprom
indefinitely
indirectly
interact
internally
lowered
manuel
procurement
select
syrians
systematically
urge
##ff
##ft
##ss
advocating
ayatollah
backdrop
boards
boj
conceived
crackdown
destabilize
digit
disposal
distressed
drinking
environments
florida
hazard
initiate
medicare
mohamed
morally
narendra
ncds
opinions
opt
personality
plagued
preceded
privately
rage
reaches
rebuilding
relentless
reminded
safely
sport
stimulating
substance
traction
unlimited
warm
##ill
akin
allegations
allied
appointment
beautiful
branch
chapter
claude
compounded
contributes
darfur
dealt
embassy
emphasizing
empowerment
existed
fits
forecasting
guilty
imagination
indifference
insistence
linkages
mitigation
obsolete
personally
peter
postpone
remind
rush
scandals
scottish
season
shareholder
suspected
theoretical
transitional
violated
##go
##ked
anglo
battles
clinics
compelled
complementary
consumed
denuclearization
dimensions
distorted
examined
fatal
flooding
forefront
freer
gathered
gay
genetically
headline
ignores
mccain
militant
mitigating
nepal
obliged
oslo
papers
persists
portfolios
proposition
provincial
rail
surrounded
telecommunications
##gy
##lled
##no
accumulate
bankrupt
besides
boys
compatible
concepts
conspiracy
counts
criticize
customer
describes
dirty
exaggerated
exhausted
forthcoming
hardline
helicopter
hole
instance
interview
jacques
kuwait
moderation
modified
occasionally
organic
peacefully
rebound
regards
suspended
tenth
troubles
ukrainians
##cies
##ied
##mer
##nd
##ture
##vi
agreeing
assertive
bar
belong
bo
canadian
drama
evasion
firing
fled
foot
fukushima
guiding
holy
innovate
irreversible
kgb
liberia
margaret
measuring
mobilized
mount
occupy
pessimism
pledges
powered
prediction
privilege
profoundly
rivalry
semitism
speaks
spurring
tel
thriving
unrealistic
violate
##ul
##ute
##ya
alarm
appreciated
barrier
blueprint
calder
commissioner
comprises
correction
courses
destiny
enlightenment
exceeding
excluding
hosted
hub
hugo
impeding
inspiration
libyan
liu
overhaul
perpetrators
preventable
recipients
resigned
ring
station
steep
stepped
strip
subsidized
swept
turnout
zhou
##ig
##ously
##sion
adversaries
affluent
aluminum
anchor
binyamin
dependency
diagnostic
doctor
doomed
doors
drew
elusive
gaulle
geographic
greed
headquarters
interpreted
leap
leftist
marx
movie
navigate
outset
plot
print
quasi
relevance
renewal
revealing
shouldn
specter
storms
strains
strictly
##rd
##ship
absurd
allocate
appoint
aviv
bundesbank
calculated
cement
competent
consists
crown
dam
defenders
drain
evidently
executed
execution
exporter
gravity
hostage
illnesses
impending
insists
insolvency
maneuver
oligarchs
organizational
paradoxically
picked
praise
recipient
refrain
regulating
remembered
rounds
satisfied
section
senators
sentence
shame
subsidiaries
summits
supportive
tended
theresa
totally
twin
unthinkable
worthy
##ome
##ug
absolutely
anxious
anytime
arrival
bahrain
belarus
boris
brave
businessmen
channeled
collapsing
compel
confusion
democrat
diaspora
discussing
disregard
fleeing
footing
fragility
hearing
heritage
herself
insolvent
missions
patience
peacekeeping
petroleum
renzi
slavery
suspicious
syriza
tap
timely
wishes
##ched
##gate
##ip
categories
commander
consecutive
correctly
description
dismal
distribute
enormously
fixing
forming
homeland
hyper
incidents
ip
legislators
manipulate
mistaken
mobilizing
navy
officer
onset
operates
opted
quietly
reproductive
signing
spike
title
tries
unavoidable
virtue
watched
withdrawing
##gs
##ile
##lan
##late
alcohol
attended
broadband
broaden
capitalize
catalyst
constraint
crossing
delegation
detect
dictatorships
divergence
eradicate
exclude
finished
fly
fundamentalism
handled
influx
intervening
kick
listed
muammar
organizing
outsize
racism
radicals
readers
rebellion
reformed
registered
rigorous
socioeconomic
stores
talented
theme
torn
tropical
underestimate
unleash
viewing
visits
witnessing
##ency
##ming
associations
competence
constrain
costa
crucially
debated
denounced
detail
directors
distributional
dpj
dual
enrollment
evaluate
exceptionally
explaining
extremes
farc
globe
grade
incurred
killings
lasted
lest
merits
misery
perspectives
predominantly
rank
rapprochement
repayment
ship
skin
structured
succeeds
swift
symptom
systemically
tsipras
uprising
withdrawn
worrisome
##and
##ev
##ger
##iest
##rt
accustomed
achievable
bright
caucasus
christmas
conflicting
consequential
dry
educate
efficacy
exile
importing
integrating
maturity
moderates
moldova
nearby
outdated
owe
passive
persuaded
prescription
prestige
prohibition
reacted
reinhart
respondents
sharif
speculators
stone
surrender
thinkers
thrown
transformative
volcker
##cal
##room
##uting
##work
adds
apartheid
avoidance
confused
defenses
devote
discount
dynasty
emperor
enjoys
exacerbating
fantasy
guant
hearts
hosni
impasse
khrushchev
lag
lucky
machinery
markedly
maximizing
minute
mit
modernize
namo
nominee
reassuring
repressive
resume
shocking
sky
smes
stunning
surpassed
switch
thai
turbulence
workplace
##board
##cation
##cks
##lies
backward
clause
communists
complained
constituencies
correlation
derived
discover
divorce
embargo
ensuing
explore
explosive
federation
flag
frankfurt
havoc
husband
inauguration
inhabitants
intra
investigations
lying
macri
mismanagement
monopolies
morning
objections
organisms
outlays
outsourcing
overdue
owes
pipelines
postponed
pragmatism
proceeds
reactors
refuses
reporters
retired
studying
susceptible
taxing
undertaking
unfortunate
upheaval
visiting
walls
yellow
##aking
##hing
##inate
##uated
##zed
asserted
automobile
bed
capacities
capitals
castro
color
conscious
counted
deploying
designing
detention
disappointment
flourish
frequency
groundwork
hardship
hero
highlighting
incident
inconsistent
jail
jeopardize
loyal
majorities
materialize
mature
nurture
payroll
perceive
permits
picking
pluralism
predicting
professors
promotes
proximity
pulled
quantities
realization
rebalance
reconsider
scenes
signatories
specialized
standoff
surging
tendencies
tiananmen
turks
undercut
upholding
writer
##ancy
##ky
##ron
##va
##ving
accords
administered
admittedly
banker
blown
burned
busy
comply
consultation
contradictory
cosmopolitan
curve
dictate
dubai
eighteenth
employer
endemic
enshrined
etc
everyday
headwinds
heights
hitting
iii
inclined
ingredients
invaded
jihad
len
meets
narrowly
needless
oldest
overhang
posts
precautionary
puzzle
reactor
remedy
restructure
rogoff
score
shortly
siege
steam
subjected
substantive
superiority
sympathy
synthetic
theirs
underpinning
underscores
unwillingness
upside
vowed
##em
##ium
##oo
##over
##rified
##sa
##tch
adapted
admission
apparatus
beach
combining
commentary
contradiction
crunch
dawn
deficiencies
device
diffusion
disadvantage
disorders
empowering
exploration
fascist
fierce
floating
guess
guns
homeowners
inner
interior
intervened
judgments
lagging
loses
monti
notorious
obsession
obtained
odd
persecution
pessimistic
prohibited
questioning
reformist
reinforces
render
repercussions
resemble
riots
swaps
tribunal
undervalued
user
varying
##lands
##lls
##ni
##uous
analytical
artificially
aversion
calculation
champions
cite
civilizations
classical
conducting
conferences
constructed
cool
cyberspace
decreased
defended
disclosure
diversify
dog
drones
embodied
extraction
flying
gamble
geographical
graduate
grassroots
imposes
intends
longest
metrics
mirror
mohammed
mountain
proceedings
pronounced
questioned
railway
rousseff
satisfaction
simplistic
soul
talents
unhappy
verge
##ens
##ets
##mo
##uted
accidents
afraid
approve
argentine
beneath
bonuses
boon
complement
computing
dose
drops
dubbed
employee
enjoying
entertainment
fox
geopolitics
havens
hegemonic
ict
identical
illicit
imposition
improves
innovators
invisible
irrigation
kissinger
leveraging
literature
locally
messages
oppression
paths
polar
populated
precious
prevalence
privileges
proves
provoked
recommend
rendered
sierra
symbols
tanzania
traits
transit
uber
unchanged
varieties
woes
yielding
##di
##dr
##lating
##logists
##mi
academy
adam
analogy
announce
articles
awarded
bacteria
britons
buffer
cholera
cleaner
complain
corbyn
decides
demonstration
demonstrators
depended
deprived
dismantling
disrupted
distinguished
eligible
engineer
enriched
fearing
fulfilled
functional
gift
gm
horse
hypocrisy
iceland
incoming
indebtedness
installed
jurisdictions
languages
leone
locations
manageable
meters
outbreaks
paralyzed
parent
persistently
prevails
proactive
racist
rmb
sch
socialists
spd
staying
thirty
transferred
unsurprisingly
wilson
##bed
##berg
##ery
##fies
##my
accommodation
celebrated
chess
colleague
crossed
crowds
disadvantaged
diversified
fbi
flee
fsb
gnp
gridlock
imperatives
imprisonment
incompatible
incompetence
infant
lobby
outward
perverse
plunged
preoccupied
procedure
prosecutors
proving
purchased
ratify
realm
reminiscent
risking
rolling
screening
sdg
seed
shopping
spillover
stiglitz
taxpayer
trauma
warn
winston
worldview
##ai
##au
##ches
##day
##hood
##ok
##tal
##ude
arena
cdu
chooses
composed
deepened
describing
disposable
domination
duration
enthusiastic
exploring
harbor
hugely
illustrates
independently
lifestyle
manages
newcomers
obscure
opaque
orientation
osama
outweigh
overcapacity
pages
penalties
pilot
pulling
quota
resignation
ruler
specialists
stockholm
submitted
supervisory
tactic
taxed
translated
unskilled
utility
valued
##gling
##wing
acceleration
acknowledging
advocacy
alexander
algorithms
analyses
autumn
beating
compromised
condemn
constituency
corresponding
developers
discouraging
discoveries
discretionary
extraordinarily
feat
fertile
fundamentalist
guinea
harassment
heating
hopeful
imprisoned
insurgents
invention
jihadists
laying
meddling
mine
modernity
monarchy
murdered
nice
owner
pie
plastic
portrayed
primacy
prosecutor
prosper
radiation
resembles
resign
retains
settings
tank
tie
violating
weakens
##bing
##lated
##lt
##maker
##nable
##rable
##ti
##ved
afd
austrian
autocrats
automated
automobiles
barring
betting
bio
bizarre
blaming
clashes
coercion
coffee
contempt
couldn
critically
delicate
depositors
eating
elevated
emirates
emu
exported
foolish
forging
formerly
frozen
glut
heroic
hosting
inquiry
intractable
jihadist
kashmir
lawyer
mathematics
metaphor
mile
occasions
optimists
particles
peril
polling
pradesh
qualities
radicalism
refer
rents
shelter
slaughter
song
sparked
strengthens
tipping
uble
uncomfortable
unilateralism
warren
wealthiest
##ators
##ics
##ience
##ory
##tt
##uate
abrupt
advancement
airport
alleviate
amounting
announcing
asserting
blessing
campaigning
classified
confronts
consequently
continuity
crowded
depressing
engineered
expressing
fat
fever
heated
hollywood
hotel
inclusiveness
jcpoa
license
listening
logistics
mobilization
mueller
multinationals
multiplier
myself
offs
operated
orange
par
patriotism
peers
portray
prague
recovering
rica
shore
shorter
societal
squeeze
surged
tier
unbalanced
virtues
volumes
##hs
##lessly
##ore
##rant
##za
airports
americas
arising
armies
bets
boats
chemicals
civilized
clever
committees
convert
counting
curtail
cushion
deterrent
divisive
donations
endure
erratic
experimental
famine
fascism
forged
framed
fundamentalists
hybrid
indicating
inform
lags
los
milton
ministerial
moments
mps
nervous
percent
persian
precarious
publish
punitive
qualify
questionable
rejects
sequence
sizeable
sons
stricter
stringent
talked
technologically
trades
treasuries
ugly
underpins
visa
widen
william
withdrew
##ber
##iation
##ifying
##per
##tering
##tized
##ulated
##ulation
accumulating
advent
armenia
bhutto
collaborative
convened
conventions
cow
credentials
disappointed
disorderly
domain
dumping
fisheries
fledged
girl
hardliners
hypothesis
isolationism
killer
laboratory
magic
modernizing
multipolar
owed
participated
plague
prerequisite
punished
remedies
restrictive
retained
robotics
rogue
sad
senkaku
shocked
silvio
slack
stabilized
submit
successors
suppression
takeover
transmitted
uruguay
wisely
##ited
##oon
##ored
##ration
##ria
adjusting
analyze
assertion
basically
branches
climb
collapses
compassion
congo
convenient
cryptocurrencies
debacle
defines
delays
dividing
embarked
endangered
entitlement
exciting
fifa
fortunes
glance
identification
impeded
inertia
jazeera
karl
leaning
lucrative
mantra
married
observation
pessimists
polarized
pretend
priced
protects
religions
sacred
sacrifices
shi
smarter
suggestion
supplying
tailored
teacher
tehran
tripled
unfolding
varied
victories
vigorous
virtuous
##ction
##ef
##ered
##lier
##mp
##rm
accordance
agrees
arts
assurances
blockchain
boosts
broadening
broker
carter
coincidence
comparing
curtain
epidemics
experimentation
fraught
harry
hegemon
horrific
jeopardizing
length
matched
militia
nicaragua
nostalgia
plain
powerhouse
prosecution
rape
ratification
relating
relatives
resisting
resurgence
rewarded
searching
secession
servants
shed
signaling
sister
slovakia
sorts
spiritual
supplier
swfs
tape
textbook
tip
traveled
unchecked
uprisings
yielded
##ez
##hed
##ick
##ished
##wa
##ward
##water
alas
beef
burdened
chaotic
combines
connecting
continuation
craft
deadline
diplomat
dissidents
ensured
examination
extract
fans
fiction
founders
fruits
futile
gcc
handling
impacts
jiabao
jos
kyiv
lofty
manipulated
massachusetts
milk
morales
overlook
overwhelmed
persistence
pieces
predicament
reassure
referenda
retirees
santiago
session
simpler
ski
stars
subsidize
subtle
theft
tibetan
tillerson
tour
tracking
transformational
trivial
tyranny
undergo
upgrade
visions
watershed
writers
xenophobia
##arian
##ha
##ivity
##nation
##oid
##rably
abundance
answered
antimicrobial
assembled
behaviors
bent
brutality
charismatic
citing
cloud
collar
colombian
completing
compound
coordinating
cronies
disparate
escalate
evaluation
foresee
harness
hasn
healthcare
hoc
iaea
influences
inspiring
interdependent
interpret
ki
landmark
larry
ldp
lifestyles
marketplace
meaningless
medicaid
mena
mgi
mild
minimizing
nairobi
neighborhoods
ngo
obsessed
persons
powell
properties
renaissance
repaid
replied
roadmap
ryan
savvy
scant
segment
seldom
selective
separatist
slows
strife
ton
underscored
unregulated
useless
ventures
vessels
weigh
wholly
##ane
##etic
##rin
##ural
##way
acquiring
acquisition
addiction
aided
arrow
audiences
babies
bailed
burn
capturing
championed
clock
conditionality
consolidated
contend
cypriot
departments
devastation
develops
disability
disinformation
drastic
employing
enforcing
eve
exposing
fatigue
fertilizer
financiers
gesture
holiday
imperialism
investigate
jointly
kids
livestock
mandates
measurement
mixture
mohammad
observer
occupations
occupying
panels
plo
plunge
pneumonia
possesses
preparation
reviews
semitic
soros
spill
stayed
strive
tempting
tightened
tissue
topics
trick
uneven
uniquely
worthwhile
zedong
##ei
##fa
##fold
##gh
##ko
##op
##outs
anymore
balkan
banning
biases
brains
brands
breach
canceled
chaired
designated
determines
disappearance
dysfunction
expecting
farther
footprint
goodwill
gore
guaranteeing
incumbents
inflated
intact
kaczy
lagarde
lawmakers
magazine
manipulating
motive
olmert
patriotic
peg
plastics
populous
preceding
reckoning
shell
sidelines
stolen
stops
stretch
throwing
tigers
untenable
valuations
variable
versa
viability
von
xenophobic
##ade
##lay
##play
##pping
##ses
##tched
adapting
blocks
brilliant
catalonia
concludes
conscience
contemplate
convicted
depreciate
disciplines
escaped
fearful
grain
highs
hosts
individually
infamous
jintao
kyi
legislature
lobbyists
mandated
mergers
misses
mode
possession
pregnant
readiness
recourse
republics
rescued
rocket
scandinavian
sensitivity
severity
stagnating
string
taylor
toppled
tourists
underscore
universally
updated
voluntarily
wartime
wealthier
zuma
##ak
##ani
##hony
##kes
##lling
##rity
##shed
##ten
abound
alibaba
assessed
athletes
attainment
authorized
battlefield
boy
campaigned
candidacy
catholics
charisma
charity
clearing
clubs
codes
com
commons
concert
confirms
consciousness
contested
contingent
converge
cop
countering
criticizing
curbing
darwin
deteriorated
devised
diarrhea
divert
dragged
externalities
fiscally
fortunate
geo
horrors
ideologies
impetus
intermediate
knowhow
methane
naive
opposes
overheating
peculiar
plenum
practitioners
prudence
radicalization
rainfall
revenge
sighted
slight
snowden
sovereigns
spark
squandered
subdued
suu
thoroughly
trichet
tweets
unraveling
unusually
westerners
worlds
##ew
##mate
##q
##sk
##ville
##worthy
absorbed
antibiotic
arsenals
asymmetric
biased
bombings
bulgaria
bullying
caliphate
cheaply
circulation
conception
constituents
contradictions
covers
depleted
desert
deteriorate
devastated
diagnosed
earners
envoy
fashioned
films
fines
frame
freed
friction
grab
harmony
heroes
hubris
ills
implicitly
injured
label
latvia
liberalizing
lingering
midterm
mosquito
muhammad
noting
nuanced
operators
parallels
passes
passion
please
prevalent
proportions
pursues
rankings
redress
regret
requests
riskier
rohingya
rumors
safeguarding
sen
shield
shipping
signature
simultaneous
slide
spaces
spearheaded
starvation
supranational
surpass
tale
totalitarian
unanimously
unveiled
urging
verdict
widened
yesterday
##ess
##gated
##gle
##lining
##otic
##ow
alienated
bloodshed
blunt
boss
buried
calculus
celebration
chernobyl
complications
convenience
corps
designs
discouraged
dismantle
doses
encounter
endorsement
fairer
georgian
guilt
hanging
hassan
helium
idle
indices
injections
invoked
ironic
kofi
massively
nationality
oda
offsetting
palace
pandemic
planners
ravaged
recruit
refinancing
reminds
salary
schengen
secrecy
separated
similarities
spotlight
staged
starkly
stephen
tail
taiwanese
thoughtful
tolerant
transferring
turbulent
unconditional
uribe
vocational
wholesale
wood
##ay
##bank
##ching
##ire
##lation
##py
##tar
##uating
##und
##used
##vs
##zation
airlines
ambiguous
beirut
bernie
bureau
catalyze
ccs
communal
conducive
conversion
crafted
cry
curriculum
daniel
decay
der
eroding
esm
faction
favoring
flaw
flu
hailed
hawks
highway
incorporate
interfere
isolate
killers
koizumi
lows
luxembourg
mitt
organs
positively
premise
premiums
prohibit
prop
recapitalization
referring
regulator
reliant
rethinking
retrenchment
rid
routes
smoke
spared
straight
taboo
textbooks
trains
unfettered
utilities
variant
verification
vigorously
worsened
yourself
##ab
##bling
##dle
##encies
##ges
##iling
##kin
##point
##rc
##town
aiming
arose
autocracy
backstop
bolstered
bosses
broadcast
capitalists
cbo
characteristic
chart
chechnya
clarify
clothing
collecting
complicating
conundrum
croatia
crossroads
crumbling
czechoslovakia
delaying
depreciated
derive
directions
en
endorse
estonia
ethnicity
ethos
excitement
finish
formulate
fusion
humiliating
indications
inefficiency
inflict
input
invite
leisure
levy
lock
looms
manager
marijuana
mbs
omt
opium
periodic
prioritize
publishing
recoveries
relentlessly
remarks
retire
ridden
riding
rivalries
seeming
shaken
shiite
sink
soviets
spheres
subprime
succumb
supplied
survivors
variations
waging
warranted
wildlife
wrought
##ages
##art
##end
##lin
##nized
##rial
##teen
##ys
adherence
angeles
app
articulated
artists
attributable
believers
blocs
cn
coined
colonialism
comparisons
compensated
completion
conservatism
contacts
countryside
covert
downs
einstein
enrich
enters
feeding
fomc
granting
grouping
guards
hiding
hierarchy
homegrown
hurricanes
inconvenient
janet
junta
khodorkovsky
kohl
lawsuits
outlined
passionate
peaked
posing
posture
preferable
pregnancy
rolled
santos
seventh
solvency
steer
sterling
surgical
suspend
swiftly
tacit
testimony
thoughts
tiger
tortured
unimaginable
whoever
wishful
##ain
##ass
##han
##he
##ica
##ication
##ried
##ua
abstract
academia
amendments
appalling
attached
attribute
bans
birds
bite
bolstering
bundestag
burgeoning
chase
classroom
collaborate
columbia
condemning
constraining
courageous
criterion
cruel
deductions
discern
egregious
electronics
equation
federalism
filed
folly
habit
instances
invading
jim
loaded
maliki
matching
measurable
messy
museum
nordic
ours
overvalued
pause
perpetual
pivotal
random
register
reiterated
requested
retaining
revision
salman
saxon
sdrs
setback
shattered
spots
startups
stature
stepping
stifling
strides
supremacy
swings
waning
wear
wearing
wondering
yale
##by
##cious
##ees
##ep
##fy
##izes
##nate
##right
##take
alert
altered
alternatively
andrew
articulate
band
belongs
carney
cents
cleansing
contributor
conversations
corn
dairy
damascus
debating
declarations
delusion
derail
dip
disdain
displayed
drastically
dropping
exact
exert
fallacy
friendship
fringe
horror
hubs
immunity
implosion
importers
intend
intimidation
kenneth
lama
lengthy
loud
morgan
murderous
notoriously
overarching
paved
pensioners
permitting
phased
preferential
protective
proteins
provider
publications
responsibly
restraints
revise
rewarding
rhetorical
rumsfeld
seizing
shah
sleep
slogans
specialization
standpoint
strained
stresses
stupid
suitable
surveyed
suspects
topple
usage
yasukuni
yushchenko
##atory
##ced
##ga
##ils
##makers
##matic
##ong
##sis
##tory
##uel
abide
abolished
advisory
ambiguity
amnesty
anwar
aspire
assertiveness
attorney
barred
beauty
biofuels
briefly
buddhist
calamity
commonwealth
concede
condemnation
consolidating
copy
curse
danish
demographics
diets
dilemmas
discriminatory
doom
draws
entrants
escaping
franc
halved
hamilton
humane
ignorant
incorporated
kurdistan
ll
mankind
murdoch
nationally
nationwide
nexus
ntc
offense
osce
outgoing
oversee
pandemics
pave
pesticides
praised
prejudice
pretext
prisons
prompt
promptly
renegotiation
renew
retailers
scaled
scaling
scholar
seated
shake
sided
spell
spillovers
sponsors
squarely
stuff
suffice
suppressed
unexpectedly
uniform
venezuelans
vocal
walking
##ao
##atic
##ik
##inated
##ker
##ption
##tain
##ust
absorbing
aggravated
altering
appearing
award
ball
barroso
bars
bashing
biotechnology
contexts
conversely
dear
defy
demagogues
desires
distort
divides
dominates
drift
drilling
educating
efsf
elaborate
embodies
encouragement
equals
examining
exiting
filling
finger
forums
frightening
halted
happily
hardware
illusions
immoral
incompetent
inexpensive
insurers
jailed
jeremy
keynesians
labeled
landslide
lax
lists
longevity
matteo
mentality
muddle
muscle
mystery
negligible
nigerian
nonsense
ominous
panacea
persuading
plentiful
precision
predatory
processed
proxies
punishing
purge
responds
restaurants
reviewed
rough
scourge
shooting
shop
shortfalls
shutdown
smoothly
spin
stagnated
steagall
stern
totaling
ussr
victorious
warrant
wasteful
weakest
wonders
wounded
writes
zionism
##ana
##burg
##cent
##dp
##eted
##ibly
##ically
##lla
##logy
##nal
##oning
##ray
##stic
##unt
abolish
accepts
albania
astonishing
attending
attractiveness
awakening
bhutan
bind
brunt
builds
businessman
campaigners
characterize
cheney
circumvent
comprehend
comprised
concession
contracted
copper
curricula
dams
deadlock
deception
defiance
dictates
disparity
ehud
embody
endeavor
endgame
environmentalists
eurasia
expands
expressions
fifty
ghost
greatness
healing
hurting
impediments
institutes
jumped
karzai
khomeini
lip
lobbies
manchester
milestone
modification
niger
normalize
noticed
nurses
ousted
owning
physicians
planting
presupposes
railways
recruitment
remembering
seattle
serbian
shoulder
sometime
specified
spectacle
stubbornly
succeeding
suits
suspension
taste
therapies
thereafter
tightly
tree
weighed
weighted
wield
zombie
##ari
##cate
##fied
##ination
##ise
##lo
##pp
##pt
##rad
##uk
accompany
accuracy
accusing
afforded
alienation
analogous
anonymous
architect
augment
billionaire
bloated
bosnian
bullet
catching
childbirth
cio
cleaning
contracting
convene
costing
crippling
culminated
cultivate
curious
dearth
differential
dust
excellence
forgiveness
frontiers
geostrategic
hell
himalayan
icty
interestingly
intolerance
issuance
loved
manmohan
mexicans
mike
narrowing
nationals
objects
osborne
peso
petty
phenomena
polity
predictably
provocative
pump
realpolitik
repeating
salvador
sample
schedule
settlers
sorry
stall
stifle
sunday
transcend
traveling
ubiquitous
undeniable
varoufakis
vengeance
wilders
wildly
##ac
##cated
##cence
##een
##ek
##ents
##hi
##pped
##rates
##sia
##tions
##tle
##ugh
##ulating
##using
##vable
abruptly
acquisitions
anchored
appropriately
azerbaijan
backs
bangkok
billionaires
boat
chauvinism
commensurate
communiqu
confusing
continually
contrasts
convey
crack
dalai
dare
dates
delta
denver
desperation
devaluations
eggs
eisenhower
empathy
encountered
eradicating
espionage
exercised
expenses
fabric
file
generic
hayek
helsinki
hesitate
hurdles
indoor
ingredient
install
instant
invitation
lining
lithuania
macroeconomics
measles
melbourne
melting
mercy
metric
millennia
mineral
mines
misplaced
monitored
multiculturalism
narrowed
nationalistic
neoliberal
obtaining
organ
parameters
physically
pleasure
prompting
recycling
refuge
registration
reinvigorate
reshape
retraining
robot
row
rowhani
sentences
sharia
surgery
sympathetic
tamil
tradeoff
unrelated
versions
wolfowitz
xinjiang
yuan
##ast
##ci
##cket
##cted
##fe
##gal
##gue
##if
##nes
##ric
##tation
##tered
##utable
##zi
abdel
alignment
analyzing
ancestors
appointing
awaited
backgrounds
barrels
belonging
boasts
cartels
caste
clothes
codependency
communicable
converted
crazy
culprit
culturally
dampen
deepest
definitive
descent
disconnect
divergent
edward
emanating
emergencies
fence
fischer
gavi
genius
guerrilla
haram
harming
highways
hill
humanities
impedes
inadvertently
incite
incur
inferior
inheritance
instincts
invaluable
likud
linguistic
logistical
mafia
maps
marry
masters
meager
minerals
molecular
motor
neutrality
noble
parks
passions
peres
perilous
plummeting
politburo
politicized
polluting
posturing
powerless
practiced
predicts
printed
propel
provocations
provoking
refers
reign
restaurant
servicing
setbacks
shall
shortsighted
showdown
sinking
skewed
sticking
stoking
stretching
suicidal
sway
tfp
theater
tired
translates
traumatic
victor
viruses
visitors
website
zika
##car
##cting
##den
##down
##ice
##ich
##ised
##lav
##oc
##ocracy
##pers
##uing
##ures
accompanying
admired
aides
aleppo
ammunition
assure
attachment
beset
biomedical
brutally
commissioned
cooperating
database
deficiency
deficient
defuse
determinant
digitization
discretion
downgrade
erupt
establishes
fade
faltering
farmer
farmland
fee
float
generational
genetics
gini
hectares
hollow
illiteracy
indifferent
isolationist
jihadi
katrina
kills
kirchner
laundering
lean
liked
mercantilist
merchandise
momentous
motivations
napoleon
paramount
pentagon
pla
portuguese
preservation
prohibiting
quit
redistributive
reelection
reshaping
selfish
sellers
sentenced
seventeenth
shrunk
spare
supplement
surviving
tasked
tertiary
troop
twist
umbrella
undemocratic
undesirable
unpaid
upheavals
weekend
wrongly
##als
##bo
##ces
##cible
##cking
##dering
##do
##hn
##int
##kar
##lity
##mination
##od
##rk
##tism
##ways
abilities
adversely
analyzed
arrogance
assigned
atmospheric
battery
bbc
beggar
bidding
boko
bombers
bread
buildup
capitalized
chamber
coercive
comment
commissions
conceptual
cooking
destined
detained
differentials
discredit
diversion
editor
existent
fathers
forecasters
freeing
garment
harmonization
harvest
hits
illiquid
immensely
inappropriate
indo
jimmy
layer
liberated
loop
mad
manafort
math
mathematical
michel
nascent
nationalization
nicholas
nieto
nominated
occasional
owns
pe
persuasive
plane
polluted
prescriptions
propensity
rabin
rain
rated
reaffirmed
relates
relation
resumption
resurgent
scarcely
schr
secularism
sends
senegal
shores
soar
spirits
stroke
substitution
supporter
suppressing
sustainably
telephone
tocqueville
trickle
tune
unfinished
unicef
unreliable
unwanted
upheld
vanished
vatican
volunteers
wheat
windfall
wounds
##ach
##gel
##ison
##itis
##kov
##light
##rry
##tter
##urse
abkhazia
adversary
afflicted
aires
allegiance
analytics
annualized
antagonism
anticipation
appointments
architects
arriving
attendance
averted
banner
barcelona
baseline
bribes
buenos
calculate
cape
capitalization
carmen
carnage
chairs
chemistry
client
cocaine
coefficient
coherence
complacent
compromising
constituent
cooling
daughters
decarbonization
delivers
descendants
diamond
disaffected
disarray
doubtful
downstream
draconian
embark
emit
envy
extinction
fashionable
fixes
generosity
greener
hacking
helm
histories
ibrahim
impaired
impeachment
incited
intrusive
journals
lab
leaks
legislatures
letters
lifelong
lord
macedonia
marshal
microfinance
nazism
negatively
nelson
nicol
nutritional
partition
patronage
pending
philosophers
philosophical
pictures
poet
recalls
reconciling
rupee
ruthless
sadat
screen
separately
shoes
shops
shy
silva
sin
stockpiles
stoke
strait
subsistence
swung
syndrome
taxi
teeth
texts
thy
transformations
tribes
ubi
upset
validity
variation
wanting
willingly
zhao
##db
##gen
##ham
##lable
##ou
##side
##sphere
##table
##viable
accommodating
accomplishments
acknowledges
admitting
alexis
anticipating
arbitrage
arbitration
arrows
averaging
blackmail
bullets
burmese
cable
cancers
colleges
combatants
compulsory
couples
coups
delegates
deterred
diesel
dinner
disclose
dogs
echo
egalitarian
enacting
enhances
entitlements
eternal
eurasian
evaluating
excludes
exemption
expire
fleet
fool
glory
greeted
grossly
hearings
impediment
influencing
intermediaries
internationalization
inviting
joblessness
leaked
linear
loosening
manifest
metals
metropolitan
mill
morale
moratorium
na
nasa
offspring
opens
panama
peasants
perils
perpetuate
pioneering
preparations
pressured
projection
provocation
publicized
rallied
reconciled
remarked
reputations
reserved
restrain
restructured
rim
ruin
se
separatists
sequencing
stakeholder
surprises
suspicions
tainted
tapping
tourist
trips
tweet
tymoshenko
undergone
unhealthy
unjust
unpleasant
utter
van
variables
warns
##are
##con
##ctor
##ean
##gent
##iled
##inating
##list
##load
##logical
##ncy
##nded
##oms
##ratory
##stone
##tate
##uck
##ured
abolition
accuse
allocating
anxieties
averse
bali
bare
bipolar
blockade
bp
brighter
budapest
buys
celebrating
chambers
cigarettes
citigroup
coin
coincided
colonies
cooperatives
corrected
corridor
countercyclical
critique
deliberation
detection
deutsche
dictated
directive
disabled
dissident
distinctive
downturns
eligibility
euroskeptic
exempt
fore
formulated
freshwater
gauge
grandchildren
grexit
grounded
guatemala
guerrillas
hazards
hints
incidence
incipient
infants
interpretations
invests
islamabad
khan
loom
manifestation
mediocre
melinda
migrate
milosevic
mismatch
moderately
oppressive
originated
pax
petersburg
policing
precedents
prematurely
preparedness
prisoner
prominence
pronouncements
propelled
quantum
quarterly
queen
raging
reaffirm
relaxed
reliably
rendering
rupture
rushed
saakashvili
sat
settling
slashed
sober
sounding
spectacularly
stating
subsidizing
te
tense
thorough
treats
unifying
uniting
violates
waged
workable
##ath
##ational
##bes
##cable
##cle
##cts
##field
##hic
##iating
##ings
##ja
##mar
##port
##ream
##rift
##row
##ttle
##ura
##ux
##ying
abused
amsterdam
apology
attained
attributes
biden
breeding
caring
changer
channeling
cites
clouds
cohesive
coins
comeback
complicate
confirmation
constructing
cornerstone
councils
critic
detainees
disrupting
dissolution
distorting
dominating
eased
embarrassing
featured
fights
fillon
gambling
gerhard
gujarat
hansen
homo
humiliated
inconceivable
inject
insecure
installations
instantly
intolerable
junior
justifies
lake
legacies
lens
loosen
lunch
manila
manufacture
merger
mountains
mozambique
nerve
ossetia
pale
planetary
pleased
precipitate
prejudices
presided
pumped
quagmire
rbi
recruits
rife
rift
rockets
ruble
sand
separating
serb
stewardship
strapped
substitutes
supervisors
tahrir
taper
tepid
terrain
timetable
token
touted
tracks
unanimous
update
vain
wahhabi
welcoming
woefully
wwi
##ats
##bi
##ctive
##ert
##grate
##her
##iers
##minate
##mit
##si
##vity
##vo
##ws
##zhou
afterwards
aggravate
anarchy
assurance
avoids
backbone
bang
behaving
bout
brca
bully
ceremony
clauses
clusters
concentrations
consultations
cotton
crony
crushing
cynicism
debilitating
deferred
devalue
devising
dilma
dissatisfaction
eighth
electorates
employs
energies
evening
fidel
flip
fluid
forbidden
fostered
frontline
fta
generalized
havel
hurts
hydrogen
illegally
impulse
insurmountable
interbank
invoke
janata
khatami
lavish
liver
marginalization
medieval
misuse
mounted
muster
mutualization
nord
notions
objection
ouster
overlapping
ozone
paranoid
permission
pew
ppp
predictability
prolong
prophet
prosecute
radioactive
realistically
releasing
retaliate
rodrik
rooms
sanctioned
sergei
seriousness
sheikh
sinister
smuggling
steal
strikingly
tall
tolerated
truths
unaware
uncontrolled
vat
vegetables
videos
vindicated
visas
warheads
wrenching
##ack
##alism
##ap
##ball
##be
##eding
##icide
##kins
##lined
##lous
##mping
##nic
##nize
##nsible
##omy
##osis
##pal
##tified
##ttering
##ui
##unk
##varian
##version
##vian
##ware
abortions
abyss
admiration
affiliated
amlo
appealed
appeasement
asks
aspiring
associates
attest
beaten
bharatiya
birthday
botswana
brinkmanship
burdensome
cares
carrier
charities
chip
combustion
concluding
counsel
cricket
curtailing
decreasing
deeds
density
earliest
empires
endowments
envisaged
envisioned
essay
eurogroup
exuberance
foes
friedrich
frustrating
frustrations
gangs
hague
hesitant
hired
holistic
honored
icc
inclination
institutionalized
instructive
insure
intifada
jobless
kenyan
laboratories
ladder
lawrence
lecture
lenin
liberalize
lion
locals
loopholes
lots
massacres
matches
mechanical
mitterrand
movies
nasty
observations
palpable
pearl
petition
pkk
planes
preliminary
prosecuted
recurring
redistribute
regained
relieve
rigged
satellites
sells
sexually
slave
smallest
smallholder
snow
stricken
succumbed
tandem
threw
ticket
totaled
turnaround
uae
uneasy
unesco
unnecessarily
unnoticed
unwise
vacation
viewers
vitality
wished
wolf
yearning
##aching
##bar
##eting
##fer
##lves
##nant
##onal
##pted
##ram
##rus
##ular
##une
##ven
##vers
addis
adherents
algerian
amend
angola
apes
aspiration
basin
battered
betrayal
boast
bordering
breath
cancel
casting
charitable
childcare
competitor
complexities
composite
constituted
continuously
contractors
creators
creditworthiness
denies
distances
diverted
dmitri
ears
elephant
euroskeptics
favorably
feeds
flooded
glimpse
grass
gst
holes
hotels
hydropower
identifies
ideologically
inaugural
inducing
injuries
insider
instrumental
intertwined
investigative
isolating
leftists
lent
levers
licensing
lights
loser
macroprudential
mart
marxist
mecca
mutations
newfound
nurturing
passengers
pathways
pharmaceuticals
plummet
pools
precedence
prefers
presenting
preserved
pri
probable
prospective
protestant
rajan
ramifications
reassert
recapitalize
reliability
reset
resounding
revelation
revolutionaries
saleh
salt
salvation
samuelson
scare
scratch
shaky
sits
slim
slip
stigma
stored
tat
tear
tenets
tunisian
unease
unfold
valuation
virginia
vitally
warmer
winds
wiped
wolfgang
yukos
##awi
##bble
##eous
##erry
##gi
##grated
##hips
##ively
##lue
##mon
##mos
##nan
##pose
##rained
##ress
##sive
##tan
##tance
##tting
##urs
ababa
advertisers
aig
applicable
associate
attain
biomass
boycott
bribery
brightest
bureaucracies
bus
centric
christine
coffers
colossal
complaint
compounds
confederation
constitutions
contemplating
ctbt
cult
cumbersome
da
damages
denounce
depletion
depths
dick
distract
dogma
domains
dragging
elizabeth
epic
ethically
exhibit
exodus
explored
failings
frankly
graft
hair
hallmark
headway
hindsight
illustrate
inspectors
instructions
intrinsic
joe
jr
lagged
legality
localized
loudly
manufacturer
mentally
meritocracy
meter
minus
mitigated
monuments
murders
muted
nokia
nurtured
orbit
overtaken
painfully
paraphrase
phases
poster
pretense
profligacy
profligate
protesting
proudly
psychiatric
rallying
reacting
recessionary
regaining
renegotiate
repairing
sacrificing
saud
saves
schumpeter
scramble
sec
semblance
sisi
snap
socio
spawned
spontaneous
stoked
sunlight
tables
tame
tantamount
terrifying
textiles
theorists
tricky
unreasonable
unsuccessful
veil
vigor
villagers
##aches
##ams
##bd
##born
##ders
##ea
##ese
##head
##ht
##igned
##ining
##lays
##lets
##lized
##mine
##nis
##ocratic
##ord
##ose
##ported
##pot
##stated
##titude
##uan
##uished
adhering
analogies
apartment
assisted
attracts
auspices
backers
beacon
beleaguered
bombed
borrower
breathe
breathing
canal
cervical
chronically
churches
coexistence
colonel
confucian
consistency
correcting
corrections
counterweight
culminating
cultivated
customary
dared
dealings
derives
dhabi
distracted
drafted
electrification
emboldened
eruption
esg
exercising
exorbitant
expelled
exxonmobil
fannie
fend
flourishing
forcefully
foresight
friday
glaring
guardian
harmed
heels
impartial
inefficiencies
inherit
injustices
insulate
insulated
inventions
jackson
jeopardy
keqiang
knock
maize
mayhem
moribund
muscular
nanotechnology
nativist
navalny
nehru
oath
observe
okinawa
orleans
overseeing
pakistanis
plunging
pop
precondition
prey
principled
proclaiming
programme
programming
protein
reassured
recommendation
references
renounce
resorting
respecting
ricardo
sahel
sanctuary
schroeder
selecting
slipped
stanley
startling
stretched
swaths
travails
tumor
underinvestment
undocumented
unelected
usher
veterans
violently
vivid
voiced
wonderful
yemeni
##bc
##bus
##dding
##du
##gic
##iated
##ilized
##ising
##off
##oma
##oud
##rew
##shing
##trator
##ury
##vel
##wn
##zen
##zer
abnormal
acutely
administer
airspace
aligning
ameliorate
amp
antarctic
antitrust
arabic
arrests
avoidable
await
bailing
bashir
battling
blatant
bolder
bri
calories
caps
cattle
christianity
circuit
cleared
cling
commanders
commanding
complicity
compounding
conceivable
confrontational
conglomerates
contradicts
coping
coral
correlated
cpi
crushed
defaulted
detriment
displace
dot
echoed
editors
electrical
embraces
emotion
endanger
enrolled
exchequer
exploded
facilitates
faded
faire
fan
firsthand
flags
footsteps
formulating
gestures
gifts
hampered
hemisphere
horizons
hostilities
importer
indonesian
inflow
insiders
instinct
intentioned
internationalism
interwar
intuitive
invade
investigating
islamism
jiang
kan
keys
laudable
libyans
malign
marxism
maturities
mayors
medication
metal
michigan
miller
modes
motivate
mr
neurons
norwegian
overt
overwhelm
pendulum
pennsylvania
persisted
phasing
philanthropy
photo
physicists
piecemeal
plug
pocket
poisoned
postponing
practicing
presumed
proprietary
psychologists
pumping
radar
receipts
recruiting
redundant
rehabilitation
relaxing
reservations
residual
revert
revitalize
runoff
sahara
salient
satisfying
shining
sixteenth
sophistication
stranger
striving
strongman
subordinate
supervisor
tapering
textile
thank
travelers
tumultuous
tusk
underdeveloped
unlock
unprepared
unsafe
untold
unwarranted
uzbekistan
varies
vietnamese
visionary
vitamin
wal
wings
##air
##beat
##bled
##iting
##mark
##ney
##raising
##ride
##stein
##tives
##tto
##ues
##vin
appreciating
arithmetic
aspires
bankruptcies
batteries
benchmarks
bleeding
blunder
bottlenecks
brazilians
buffett
bypass
catastrophes
challenger
charm
cheating
chicken
collaborating
compares
crafting
destabilization
diaoyu
directives
disciplined
donbas
dwight
email
entailed
fading
fifths
fingers
flames
forceful
fury
groundbreaking
harmonious
homeless
hye
ibm
illusory
impossibility
incendiary
ingenuity
intermediation
interviews
item
joke
juan
khashoggi
laborers
lady
liable
lighting
lords
lowers
mae
mattered
meals
medications
monitors
nasser
occurrence
paint
periodically
pile
pioneered
pity
poison
poured
pouring
premia
protocols
prowess
rallies
reactionary
recovers
redefine
relate
remotely
repo
repressed
residence
respectable
revaluation
revisionist
revolts
sacrificed
saint
sandy
schoolchildren
shadows
shaking
shots
shrine
signatory
sins
someday
sorely
speakers
startup
stays
stealing
stockpile
sue
sword
themes
traced
triggers
unleashing
weekly
wells
weren
wire
##aring
##asure
##bles
##bor
##cial
##dt
##iate
##ito
##las
##lessness
##mes
##mped
##non
##ogenous
##old
##ret
##rey
##uation
##ub
##uts
##vier
##yn
accrue
advantageous
affirmative
airstrikes
alawite
americanism
analyst
approached
arrogant
aviation
ballots
bedrock
bigotry
bismarck
bode
bolton
bother
brake
breed
bric
brookings
cameras
cartel
ceased
centrality
chechen
cherished
chips
cohort
credibly
cultivating
daring
defects
denouncing
deprive
deserved
dispersed
divine
dr
editorial
enriching
erected
esteem
fare
fifteen
fighter
forcibly
forty
gambit
gang
geun
habitat
hackers
haircut
halving
hamburg
heartland
hinges
holdouts
hydrocarbon
illustrated
indexed
infighting
insofar
insured
investigated
kabul
koran
kyrgyzstan
lahore
laissez
leak
lenists
lincoln
longtime
madness
marking
mask
menace
municipalities
objected
palin
paulo
pegged
penchant
phelps
pitfalls
pledging
pluralistic
pot
prohibits
prophecy
pushes
quoted
ra
reasoned
recommends
recurrence
redd
resentments
retrospect
runaway
scandinavia
sessions
shark
sincere
sized
slashing
slovenia
squeezed
stagflation
starved
statesmen
staunch
stripped
therapeutic
thwarted
trilateral
truman
trumped
underwater
upturn
viral
void
wiser
zionist
##arization
##cher
##cience
##cover
##esis
##ex
##fall
##fication
##isi
##iya
##logist
##nting
##ologists
##pan
##pts
##rage
##riate
##rine
##rting
##taining
##test
##uded
##unded
##written
##zy
absorption
abundantly
amenable
amplified
ankara
answering
anybody
apathy
appearances
assaults
asserts
aung
aw
backfire
backsliding
bend
binge
boundary
broadcasting
buffers
bull
businesspeople
buttress
carl
cat
cede
celebrations
cigarette
classrooms
clearinghouse
clerics
clinic
closure
comparatively
contagious
contributors
converting
convictions
copyright
counteract
crowding
csu
cyclically
definitely
degraded
demonetization
derailed
directing
disadvantages
discounted
distributing
divergences
dormant
drafting
drink
dwindling
echoes
elementary
eminent
ethanol
fa
featuring
fertilizers
fiercely
framing
geared
gloomy
glorious
grabbing
grace
greedy
hampering
hiroshima
holland
homosexuality
hook
huawei
illegitimate
implausible
impressed
initiating
injected
injury
insignificant
instituted
insult
insurgent
interpol
inventory
ivoire
janeiro
jpmorgan
kerala
lauded
legitimize
lends
lung
mantle
microeconomic
monarchies
monetization
mugabe
navigation
negotiator
outer
outrageous
outsider
overestimate
overlap
paranoia
parliamentarians
payoff
perpetuating
pervez
pointless
pollutants
positioning
possessing
posted
preemptive
prescribed
profiles
puzzling
quell
reaping
recalled
reformer
reside
riyadh
ross
rubble
ruins
shoulders
sights
slipping
stemmed
stimulated
substances
superpowers
tarnished
terminal
thwart
totalitarianism
toughest
truce
turnover
undue
unequivocally
unfavorable
unsettling
usefulness
virulent
websites
youngest
zhu
##ads
##backs
##card
##cj
##cratic
##flate
##gage
##gar
##gment
##got
##iculous
##ites
##iving
##ji
##lad
##lator
##let
##lines
##luted
##making
##mann
##msy
##nistic
##njo
##nts
##pi
##pouse
##rian
##rooms
##rous
##rove
##tas
##uding
##ullah
##urated
##uru
##west
##xed
abandonment
accommodative
adept
adventure
allocations
arabian
arc
assertions
atrocity
audit
averting
awkward
baker
bastion
behaved
beneficiary
benghazi
betrayed
blowing
bonus
boring
bouts
cardiovascular
census
climbed
collusion
comey
congestion
convertibility
cook
cows
cpc
curiosity
curtailed
cutbacks
defied
destabilized
disguised
dismantled
disturbances
divestment
dominique
dress
dublin
dynastic
educators
embryos
energetic
enforceable
entrance
erodes
espoused
evade
faiths
flights
fracking
genomics
geographically
glaciers
halfway
hall
handing
heavier
herald
homogeneous
hype
hypocritical
inaccurate
incoherent
incursions
indefinite
intentionally
interventionist
intimidate
invent
inventors
irresistible
jonathan
jordanian
kilograms
laos
lectures
liberalized
lifeline
lobbied
lottery
mail
maker
marched
miscalculation
misunderstanding
mitchell
mnuchin
modify
monumental
mosques
mosul
myths
navigating
nutrients
obrador
oneself
orwell
overseen
pa
paltry
pathogens
pernicious
pi
piracy
propping
realignment
rebuilt
recalling
reinvent
replicate
reply
resolute
resorted
respiratory
revising
rosy
sanction
scored
script
securitization
segregation
serbs
shenzhen
slash
sobering
soldier
sow
sputnik
standardized
stereotypes
steve
sticks
strongmen
taxable
teaches
testament
timid
tobin
translating
tricks
tweeted
unaffordable
uncompetitive
undertook
unforeseen
unipolar
unravel
veteran
vigilant
weighing
whopping
workings
youtube
##arc
##aya
##engineering
##fc
##formed
##fying
##har
##iana
##ition
##lic
##lities
##lords
##luence
##ners
##nity
##nski
##outi
##overs
##posed
##pse
##race
##ression
##ringing
##rum
##thought
##uch
##uit
##vation
##vest
##virus
abolishing
accidental
adolescents
afflicting
agony
alarmed
annexed
armenian
assistant
bachelet
bat
belonged
benjamin
blog
bloomberg
bottle
builders
calculating
calibrated
centralization
characterizes
chiefs
chilean
cluster
commercially
commissioners
conditioning
confucianism
consulted
contender
contraception
contractionary
crippled
criticisms
detected
deterring
disabilities
discomfort
disengagement
disillusioned
dismissing
distortion
dried
eagerly
editing
eea
electing
emitted
epicenter
estimating
exceedingly
fascinating
fdp
fences
flynn
frightened
furious
gamal
grateful
halting
hawaii
hesitation
hindus
hint
honesty
hui
hun
iconic
inciting
interlocutors
jeffrey
jeopardized
jihadism
junk
kidney
lame
lanes
liberate
listened
malawi
mastery
modeled
mold
monnet
montreal
muddled
murky
nicotine
novartis
occupational
overtake
overthrown
packed
paradoxical
passport
patron
photos
physician
plainly
polluters
pornography
proceeding
proclaim
pronged
proverbial
qualifications
randomized
rationality
regressive
replaces
rescuing
restive
revisions
rex
rigidities
sgp
shinawatra
smokers
sporting
statesman
strings
submission
superstar
tears
technique
termism
thrust
tolerable
tradeoffs
traffickers
trail
transactional
tribunals
underlies
upswing
ushered
vaccinated
venice
vs
wreak
zuckerberg
##act
##alizing
##arily
##asis
##cked
##cu
##culated
##dc
##els
##eter
##fo
##fusion
##hand
##ho
##ifies
##imation
##ino
##isms
##len
##ligence
##lved
##ndi
##net
##nizing
##orn
##ows
##pacity
##plication
##polis
##political
##qualified
##rch
##rected
##reet
##rnity
##rse
##ser
##spoken
##tage
##ther
##val
##valuation
##verted
##view
##zz
acknowledgement
adaptive
admits
ailing
albert
amazing
appease
appointees
assassinated
assemble
awaits
bis
boldly
breaches
brezhnev
cannabis
checking
cleric
clerical
coca
collision
conceded
consensual
cruelty
dating
deduction
defying
deliberations
depress
determinants
detractors
diagnostics
dictum
dimensional
disillusion
displays
donated
dsm
egg
elegant
elitist
emails
equip
fantasies
fetched
ford
fosters
generously
greens
gut
harnessing
helmut
heterodox
hinder
hoover
humility
hyperinflation
idealism
imperialist
inflicting
injection
inspections
insurrection
intangible
ivory
johannesburg
knees
lackluster
lamented
lasts
leg
levied
looser
males
managerial
manifestations
michelle
mirrors
mob
monks
mosque
naked
nam
newest
nikita
normative
offenses
orchestrated
outraged
parental
partially
paulson
peacekeepers
penetration
persuasion
philippine
picot
pioneer
princes
publicity
pyongyang
rationing
recapture
reclaim
relocate
remark
restart
reversals
risked
rust
sham
shapes
sharper
silenced
skyrocketing
smartphone
smartphones
spilled
stamp
standstill
stranded
strategists
sykes
taboos
tilted
toppling
tragedies
transmit
transparently
traps
trucks
unambiguous
unfunded
untapped
valls
visibly
walked
wang
ward
washing
wedge
wondered
worn
worship
wound
youthful
##acks
##aning
##bit
##bos
##cise
##eer
##fit
##hes
##house
##ioned
##izers
##key
##llation
##long
##made
##met
##mmed
##mming
##nel
##nier
##notes
##of
##oi
##oking
##oring
##oted
##po
##puted
##rative
##rid
##shi
##sions
##tained
##trate
##unting
##uri
##vism
##yman
aaa
abiding
aca
acupuncture
administrators
adventures
advise
amplify
antiretroviral
apologies
attests
bangladeshi
blames
blunders
bnp
breeds
bury
captain
causal
charlie
chorus
clearest
clich
concentrating
confidently
conquest
consisting
conspicuous
contaminated
contamination
cracking
crashed
credited
deaf
decimated
decoupling
deposed
derivative
destroys
devil
dies
diminishes
dissolve
distraction
doubted
dow
drowning
duck
eichengreen
endangering
endowed
evenly
exacerbates
exemptions
expedient
exposes
extensively
externally
feminism
flowed
foshan
ghraib
graduation
grapple
gravest
guangdong
guest
gulag
hang
heir
hopeless
horn
humankind
hydrocarbons
inception
incursion
inhibit
inspection
interrupted
inventories
kushner
labeling
lawlessness
leaf
lease
library
lira
livelihood
manifesto
meal
militarism
multiply
multitude
namibia
ncd
neutralize
ninth
northeastern
offline
onerous
onward
organism
outdoor
overblown
overstated
oxygen
pandora
parochial
pbc
peasant
pooling
presumption
prominently
proportional
redirect
refinance
reining
relax
relocation
restrained
resumed
riddled
romanian
saddled
sam
scapegoat
sealed
secretly
secrets
similarity
sochi
solzhenitsyn
streams
stubborn
subsidiary
summary
superficial
sweep
switched
sworn
tajikistan
telecoms
underlie
unfounded
unites
unproductive
untested
upgraded
upsurge
vegas
verbal
victors
wielding
windows
##acious
##active
##alist
##aro
##aving
##bu
##charge
##dating
##dered
##dicate
##dition
##dling
##eded
##fi
##fire
##gan
##geration
##heads
##illy
##itic
##itive
##itution
##lish
##mber
##nish
##nse
##ometer
##omics
##oral
##orm
##raged
##rging
##rich
##sell
##sided
##sition
##sky
##tating
##tein
##tention
##ule
##urban
##uto
##weight
##wind
abduction
abraham
achieves
acquiescence
adequacy
agro
anc
appliances
arisen
astounding
asymmetry
autocracies
avenues
awash
barak
births
blanket
blows
bluntly
bone
broadened
brokered
carriers
centerpiece
charging
commands
complicit
conjunction
consist
consortium
conspicuously
contractual
correa
countered
cubic
dashed
databases
destinations
differs
disappearing
disguise
disregarded
documentary
dwellers
earthquakes
edition
eitc
emotionally
enclaves
endorsing
epp
equitably
erect
esdp
exceptionalism
exchanging
extravagant
fateful
fdic
feeble
files
fitting
fixated
flies
foe
fray
frictions
fun
grandfather
grappling
harms
hawley
hazardous
higgs
hpv
hypothetical
incredibly
inextricably
inflate
intimate
intuition
invoking
jack
jihadis
ken
kennan
lament
las
latent
legalization
lima
louis
luther
ma
malicious
marginally
mediation
mend
menu
mosquitoes
motto
nawaz
noise
ominously
ordering
overreach
overriding
paving
personalities
philanthropic
plurality
plutonium
polarizing
policemen
pounds
privatize
progressed
proliferating
protested
races
raft
realist
reelected
reestablish
refined
relaxation
relegated
retribution
riches
righteous
romantic
sabotage
saga
scholarly
sections
sexuality
shallow
sharks
siberia
sixty
slightest
slums
smoot
solvent
squeezing
starving
stave
stearns
steering
sterilization
stones
strategist
supra
sydney
thaad
tilt
toolkit
treason
unconscious
unethical
unsettled
upend
utmost
utopian
vow
wane
watches
weber
wetlands
whites
zurich
##acity
##ception
##crat
##cribed
##enko
##fessed
##gating
##gled
##grading
##iable
##ight
##iously
##ips
##ivating
##kh
##lance
##lished
##luck
##mbling
##ony
##ood
##our
##pect
##pes
##ple
##power
##rade
##rand
##rants
##rition
##sr
##stitute
##sy
##uates
##ump
##uple
##vana
##wan
##ziz
##zo
##zs
accelerates
adopts
alien
alienate
alumni
americana
applauded
apt
ascent
benevolent
beside
bloggers
bodes
brewing
buck
cage
captures
carolina
cdf
chaebols
chilling
colors
column
conceal
contradict
copies
corrosive
counterbalance
county
cristina
cronyism
crush
darkness
dearly
depriving
devoid
dhaka
diamonds
dirt
disclosed
discrepancy
displacing
emigration
emitters
emptive
enactment
engages
enmity
erecting
euphoria
evidenced
evolves
expansive
facilitation
fanatics
federalist
fintech
firewall
forego
forgiven
fraudulent
geert
governs
grabs
grips
guy
hangs
happier
heady
hefty
hierarchical
hijacked
hinted
humala
hunt
hygiene
incitement
indicted
indictment
inequities
instructed
intellectually
intergenerational
issuers
jones
juncture
kelly
legs
leveled
lgbt
licensed
licenses
literary
mac
malaysian
maoist
mars
mauritius
measurements
megabanks
migrated
misinformation
mistakenly
modestly
mortal
muddling
narrower
needing
neglecting
neoliberalism
networked
nitrogen
normalcy
northwest
nuremberg
originate
outreach
overestimated
pair
pariah
pas
peaks
permissible
pesticide
planted
playbook
pluralist
portable
precursor
presumptive
pretending
primaries
privatized
prohibitively
propped
publics
ramaphosa
reassurance
reciprocal
reckon
reefs
relieved
renowned
ripe
sadness
scaf
sectoral
seizure
shortcoming
shrank
simmering
simplest
simplify
sizable
slope
somebody
srebrenica
staple
starve
statecraft
static
suggestions
synchronized
teachings
tempered
termed
thumb
tipped
tripoli
tsunamis
umno
unbridled
undercutting
undo
unused
unwelcome
vanguard
vendors
walmart
wasting
watchdog
yawning
##aic
##aid
##arity
##cating
##chi
##cp
##cracy
##df
##dge
##dom
##erson
##headed
##hold
##hr
##ides
##imulation
##isal
##its
##lar
##laus
##lers
##live
##lter
##lude
##mission
##named
##nite
##pace
##rent
##rf
##rily
##rit
##rring
##rted
##rth
##run
##siding
##tifiable
##tivity
##tly
##tsky
##uched
##uitable
##vage
##van
##vior
##win
##zable
addictive
admire
adolescent
adolf
advising
afghans
aiding
airline
allure
anathema
anew
animosity
anonymity
apologize
apprehension
apps
artillery
augmented
authentic
averages
awaiting
belgian
bothered
breathtaking
brokers
bulwark
bursting
captive
carlos
casualty
cds
characters
chasing
chickens
clan
clues
compensating
conceivably
confuse
consulting
continents
conveniently
corporatism
crashes
custody
czar
dealers
decidedly
definitions
deleverage
democratizing
denomination
depicted
despotic
diagnoses
disconnected
distinguishing
dreamed
drowned
eliminates
encounters
engulfed
enthusiastically
entrepreneur
entrusted
envision
eradicated
eric
evo
exiled
exits
expropriation
eyed
facile
faculty
farage
faulty
fester
fracturing
gallup
geithner
grandparents
grillo
hamid
handouts
harbinger
heal
hedging
hopelessly
hovering
hukou
hunting
ideologues
illiterate
impulses
incorporating
indiscriminate
influenza
intransigence
invasive
investigators
ivan
jargon
jpm
kadima
khmer
kings
lane
largesse
layers
legendary
legitimized
leprosy
libel
lightly
louder
maghreb
manual
mar
materialized
mattis
mdg
medals
mekong
mismatches
missteps
mockery
modeling
modicum
mundane
mutation
networking
newer
nongovernmental
northwestern
nudge
offerings
oppressed
organizers
pack
pacts
painted
particle
philanthropists
physicist
plateau
pompeo
ponder
preclude
predictive
premiership
presentation
prizes
probabilities
procedural
progressives
protagonists
punjab
quote
rattling
recording
remainder
remorse
resonates
rested
rubber
rushing
samsung
scales
scott
screens
secretariat
singled
sir
sizes
skillful
socialization
sociologist
soe
stationed
stifled
stomach
storing
strauss
stuart
subpar
supplements
swimming
symbolism
tastes
technocracy
temple
timed
trace
turbines
twins
unchallenged
unequivocal
unhcr
unmistakable
unsure
waited
warriors
watanabe
watson
wives
www
xiaobo
zardari
zeal
##ace
##aders
##ality
##ase
##att
##ciating
##cite
##comer
##ctic
##dan
##dos
##edly
##ending
##fitting
##hard
##hiko
##iji
##inous
##inted
##itation
##itude
##keepers
##lification
##lit
##lock
##master
##nar
##natal
##nated
##nding
##og
##ogue
##ond
##pel
##quential
##rest
##rious
##rism
##smic
##sson
##state
##tone
##tra
##uish
##uity
##ull
##uo
##uped
##vestment
abducted
accompanies
adamant
adulthood
aerial
affirmed
afloat
announcements
antipathy
apocalyptic
aquino
arable
ariel
arming
arrives
asymmetrical
attackers
blindness
blurred
boasted
bogus
boil
boldness
bonn
burkina
buttressed
cake
caucus
chad
chemotherapy
chest
columnist
commemorate
confrontations
constitutionally
contests
corners
creed
crypto
cusp
deepens
deprivation
dictatorial
diffuse
dim
discourages
dreaded
duma
easiest
embarrassment
embroiled
emitting
enlarged
equations
escalated
ethnically
evacuation
evaluated
execute
exploding
exponentially
faithful
fanfare
faso
fishermen
florence
fractured
frenzy
grandiose
greenland
groundwater
groupings
guarantor
haldane
hamper
hariri
heaven
heel
heralded
hitherto
holder
implicated
inadequately
insidious
instituting
interconnectedness
joy
kahn
kansas
kuroda
lastly
leninist
leonid
liquidate
litigation
lu
manifested
masked
mercantilism
meritocratic
misallocation
miserable
morphed
mussolini
mysterious
nagasaki
narcotics
natives
neatly
nonprofit
obese
oblivious
ohio
optimize
org
outflow
packaged
panicked
pardon
pashtun
paternalism
pence
pigs
pole
politicization
precipitously
preconditions
proceeded
prosecuting
psychologically
raid
reception
reeling
reminding
replete
replicated
reputational
researcher
resent
resident
resonate
retaliatory
rings
roiled
rouge
rulings
sacked
sands
schmidt
scientifically
sect
sectarianism
secularists
shook
sichuan
simplicity
smugglers
sourcing
soybeans
speculate
spy
staging
statute
steven
stiff
strangers
structurally
stunned
stunted
sued
sunk
surges
switching
synonymous
tackled
tag
taming
tectonic
teenagers
tellingly
temptations
terribly
theorist
toronto
tournament
tribute
tuition
tumors
unambiguously
underscoring
undone
unfolded
unlocking
unwinding
vanish
variants
velocity
wastewater
weary
wheel
wikileaks
wolfensohn
woodrow
workforces
yahoo
yitzhak
##ag
##aire
##aned
##ards
##asures
##aw
##awk
##bid
##cc
##cope
##cture
##cycle
##eaking
##eb
##ement
##ends
##ential
##era
##graph
##gus
##ico
##ign
##ishing
##ital
##itous
##lam
##law
##lick
##nations
##neck
##nsed
##nsion
##num
##oke
##oked
##olic
##ologies
##oned
##ont
##ota
##points
##pus
##quity
##ras
##raw
##riating
##rist
##rities
##rn
##roach
##rom
##runner
##sen
##some
##tics
##tification
##uaries
##ulture
##ups
##urb
##uses
##watt
##yers
abdul
abusive
adua
airplane
albanian
altruism
altruistic
andr
animated
anomaly
ante
arizona
artist
barry
basing
beholden
belligerent
bird
bits
bitterly
blessed
bluster
borrows
breakout
brick
bumpy
buoyed
catalan
championing
championship
circulating
cocoa
coexist
commentator
commonplace
compliant
concomitant
consumes
contemplated
corridors
countervailing
cozy
cured
dani
decency
decentralization
deceptive
demography
densely
depressive
differing
dignified
discarded
discord
discovering
disinflation
dislike
dissatisfied
dissolved
diverting
domino
downfall
downing
drc
dressed
droves
dump
encompassing
executing
explode
fairtrade
fanciful
fatally
fats
felipe
fiber
firepower
flexing
freddie
funders
galvanize
gary
gateway
ghosts
gigantic
gni
golan
gray
grotesque
growers
hardened
harmonize
hasten
heirs
hereditary
heroin
hopelessness
horrible
hourly
iceberg
idly
iea
incarceration
indcs
inescapable
inexorably
inexperienced
infinite
ingrained
ins
inspires
interviewed
jakarta
jared
jet
jury
justifying
kevin
koch
leveling
literate
lonely
loosely
luiz
lure
lyndon
magnified
maldives
mapping
marie
maturing
mbeki
mechanics
mfis
mighty
militarized
misconduct
moderated
mp
multifaceted
multipliers
muscles
naming
newborn
newport
nose
nostalgic
oligarchy
outpaced
overhauling
overthrew
paralyzing
pathway
peacemaking
penalize
perestroika
persecuted
personalized
pierre
prestigious
primitive
principally
professions
projecting
protestants
quipped
recalcitrant
reciprocity
referendums
reflation
reformists
relinquish
renegotiating
reporter
repudiation
resettlement
respectful
rigidity
romer
satisfactory
scattered
scrap
senses
shutting
sigh
slobodan
smile
snp
soils
spying
stagnate
steered
subjective
submarines
sufficiency
sultan
supplemented
survives
swath
ted
temper
tentative
tente
tesla
thresholds
throne
thucydides
timber
tower
traces
tsai
unacceptably
unaddressed
unanimity
unbearable
uncharted
uncommon
uncovered
undeniably
unorthodox
unstoppable
unsurprising
upstream
uptick
whatsoever
wrath
yar
##ama
##ancies
##band
##bm
##cene
##chemical
##curity
##ddle
##dro
##duce
##eds
##eed
##enger
##erving
##esh
##esus
##fed
##fs
##hc
##hd
##hies
##iary
##icate
##igated
##iles
##imization
##iri
##itz
##lank
##lant
##lighted
##lique
##lis
##lk
##los
##lve
##mb
##nc
##nett
##ob
##ola
##oons
##pc
##pin
##piring
##pitable
##ptive
##ren
##rung
##sure
##tric
##uda
##uishing
##uities
##ulsive
##ution
##valence
##vik
##yed
addicted
ade
afdb
affordability
ahmedinejad
alleviating
angst
annex
annihilation
antarctica
apologized
applicants
arrivals
asthma
authorization
avenue
backfired
belgrade
bickering
bowl
branded
butter
capped
cardinal
cared
carnegie
chongqing
cleavages
collaborators
collateralized
colorado
comfortably
communicating
compatriots
complaining
condoleezza
conquer
conserve
consisted
contingency
controversies
cra
cracks
cruz
culprits
dance
deceleration
dedication
definitively
derided
detroit
devolution
digging
disagreed
discriminate
dispatched
distinguishes
disturbed
dwarf
earmarked
earnest
earns
embarking
encroachment
ethic
evangelical
exchanged
expansionist
expulsion
extracted
extracting
fanatical
fattah
feminist
fervent
fickle
finite
fulfills
giscard
gloom
gripped
guardians
gul
heft
heighten
herd
hostages
hurdle
hydroelectric
impotence
improbable
inept
inexorable
informally
inroads
instruction
intriguing
intrusion
irgc
irrelevance
jokowi
kant
kicking
knit
labs
lancet
laureates
lawless
lever
limbo
mandarins
manhattan
manpower
max
memorial
mentions
mindful
minimized
misused
monument
motors
mouth
multicultural
multiplying
nationalized
nativism
normalizing
nsa
obscured
onslaught
opting
oral
ortega
outsourced
overhangs
overshadowed
overtures
packaging
paradise
parasites
patented
patrol
perennial
pez
picks
pinochet
pleasant
poisonous
porous
porter
possessed
pour
powerfully
preeminent
prepares
pressuring
proportionate
prosecutions
purged
rand
rectitude
recurrent
redefined
redouble
reef
regionally
religiously
reluctantly
reservoirs
resonance
respite
restructurings
reverting
revisit
revolutionized
rewrite
scapegoats
scary
seal
sein
seminal
shedding
shine
singular
slice
sliding
somali
souls
sounded
sourced
spree
statutory
streamline
submarine
surround
suspending
sweet
swf
tabloid
tapped
techno
tencent
tenuous
testified
thesis
thinker
throes
thugs
tit
tragically
turkmenistan
unconstitutional
underpinnings
unfamiliar
unpopularity
unruly
unseen
upwards
verifiable
verify
waziristan
weaponry
whales
wireless
xilai
##ances
##ato
##atoes
##book
##br
##cha
##city
##ctical
##cus
##ddling
##dian
##dified
##din
##dite
##duced
##ducing
##encing
##eon
##fess
##giving
##gon
##hal
##hill
##hole
##iably
##ien
##iency
##inant
##ix
##lared
##lates
##licity
##liness
##liver
##llo
##lm
##market
##mation
##mics
##mons
##nder
##nia
##note
##ogenic
##oil
##ole
##ound
##reated
##ree
##ressed
##rio
##rists
##rned
##roats
##rts
##set
##sification
##tably
##tery
##tible
##time
##tted
##uard
##ume
##under
##unds
##vada
##versity
##vious
##vowed
##wed
##week
##welling
##yard
adage
adheres
admirable
ads
adventurism
affiliates
agile
ahmed
algorithm
alzheimer
amended
amplifying
antiquated
attaining
auction
authored
automotive
bangalore
benazir
bengali
bethlehem
blatantly
blew
bob
bounds
bow
branding
breastfeeding
burns
buyer
cancellation
castes
cautiously
centre
centrifuges
chaebol
checked
cheer
citizenry
comforting
complemented
conclusive
contractor
converging
corporatist
deaton
decelerating
defender
defer
deployments
deputies
desertification
deutschland
diplomatically
disgust
disillusionment
dislocation
distancing
dominican
dragon
eagerness
ect
embryonic
endowment
envisage
expansions
expel
fao
fared
fascists
fiasco
fiat
filipino
fitness
flock
foothold
formulation
futility
galvanized
gatherings
genomes
grey
hectare
helicopters
henchmen
herbert
honduras
honestly
impersonal
inconclusive
indignation
individualism
inevitability
irving
iv
jaros
jersey
jets
judaism
krg
lakes
lengths
leung
libertarian
likened
mahatma
manipulator
marines
marriages
mcconnell
merging
messaging
microbes
milo
monday
monetize
murderer
musical
ne
nearing
newborns
obstruct
obstruction
odious
oligarch
operator
overlooks
overturned
pains
paramilitary
participant
participatory
perceives
philip
pin
pitch
pitting
pollsters
preempt
premises
pyramid
rajapaksa
ranges
rationally
reads
rebate
rebounded
recklessly
recruited
reinvigorating
relapse
releases
reproduction
resemblance
resolutely
revisited
ritual
robustness
roof
rosneft
samples
santa
seasonal
sensitivities
sequestration
shelf
shiller
shoot
slaves
slowdowns
sour
specifics
speeds
spelled
spills
spiraling
spite
stadiums
statist
stirring
succumbing
sudanese
summarized
supervised
surrogacy
swallow
theoretically
tickets
ticking
timeline
timothy
titles
transplant
transported
treatable
tribe
unanswered
unify
utilization
vaunted
venter
vertical
vetoed
vying
wipe
withhold
worsens
wrongdoing
zambia
##aci
##acies
##ades
##ailing
##aming
##astic
##away
##bn
##boards
##buster
##cend
##cerated
##chers
##conductors
##crupulous
##ctors
##ctose
##dor
##ede
##ffed
##fining
##hale
##hell
##hile
##his
##holders
##hops
##hua
##ilitaries
##imist
##ink
##itaries
##ivated
##lass
##lete
##lf
##lify
##loved
##neer
##nerable
##ois
##orized
##ough
##performing
##pic
##pretation
##quent
##represented
##rical
##rically
##rison
##rite
##rog
##rrent
##sement
##shooting
##tically
##tled
##tz
##ully
##ult
##urable
##uration
##vocation
##wns
##ye
accorded
afflict
airplanes
allowances
ambassadors
amply
anachronistic
animus
anna
ant
anthropocene
arbiter
arranged
arthur
ashton
assign
assisting
assuage
au
awe
besieged
biotech
blanchard
boomers
brigade
brunei
busts
button
canberra
cargo
carpet
casual
celebrity
centrally
claremont
clinging
coincide
commanded
commits
compass
concessional
conciliatory
conditioned
consult
consultants
contention
cooperated
creatures
credo
crescent
crowdfunding
cultivation
currents
darker
defamation
delegated
dent
depleting
depressions
devastate
devotion
differentiated
disapproval
disenchantment
dishonest
dissemination
distinctly
downgraded
drinks
ed
elders
elicit
endlessly
entrench
erupts
evils
excuses
exotic
expresses
fairy
familiarity
famines
fanaticism
faraway
fated
feasibility
feldstein
ferdinand
finnish
fisher
fledgling
fleeting
foregone
freight
fringes
fukuyama
gaping
garbage
gays
genocidal
glacial
globalizing
gop
graham
guise
halve
harassed
harbors
headquartered
helpless
hens
herein
heyday
hiccup
holdout
hormone
hysteria
idealistic
imitate
indisputable
infancy
infect
inland
inspirational
intensifies
iowa
isi
jew
jumping
justices
kilometer
kindleberger
lagos
laguna
legitimately
liberating
lied
lively
loosened
loving
loyalties
mahathir
marginalize
martial
mentor
merge
mightily
minsk
misrule
monster
nd
ni
nile
novelist
ntds
obscures
occupies
omar
opera
originating
outcry
oxfam
painting
passivity
peacetime
performs
pesa
photographs
pioneers
plaza
plots
plotting
pooled
pork
portraying
portrays
precipice
precipitated
precipitous
prodi
qualitative
quantify
ramallah
receded
recipes
reconstruct
regrettable
remuneration
renunciation
reparations
repatriate
replicating
reproduce
reservoir
rightful
ruined
sadr
scots
searches
sheep
shockingly
shrug
sirleaf
soften
soup
spaniards
spies
sponsor
statesmanship
stir
streak
stumble
stymied
suffrage
sufi
sulfur
supervise
swamp
swan
symposium
televised
thick
thrives
timor
tom
topped
tread
trough
twelve
tycoon
tying
ukip
unabated
unfairly
unmet
vehemently
vultures
walter
wedded
wef
weimar
whichever
whip
wine
wishing
wreck
##af
##ained
##ami
##arial
##ash
##ashi
##aze
##brium
##cably
##chman
##cified
##cki
##create
##cturing
##dest
##eal
##eering
##eff
##ems
##enance
##eou
##eur
##eus
##ffin
##finement
##franchised
##gation
##gger
##icated
##icides
##imeters
##inal
##itism
##jan
##lai
##lave
##linked
##lism
##mal
##mates
##metric
##mma
##naries
##nger
##nk
##ock
##olate
##olo
##ones
##ooned
##own
##pac
##pat
##ph
##phia
##piece
##rieve
##romising
##shine
##spheric
##sposition
##ster
##stry
##tary
##tat
##tize
##ualifies
##udes
##unction
##uously
##urious
##valuing
##vered
##vering
##vis
##wski
##ximate
##yota
accessing
accusation
adenauer
advertisements
aerospace
affront
allen
altitude
antidote
apparel
aquaculture
ardent
arduous
arresting
ascendancy
aspirational
assaulted
assimilation
astonishingly
atop
augmenting
autocrat
backyard
barbaric
bayrou
behaves
betray
bitterness
blowback
bridging
brigades
brush
cacs
cambodian
carrots
cats
ceilings
cessation
chiang
cohen
condemns
confidential
contenders
convening
cosmopolitanism
counseling
counties
creature
cryptocurrency
darkest
decree
defect
defective
defensible
depart
descended
detached
detrimental
dismissal
distorts
diversifying
doctrines
donate
doorstep
ecologically
emitter
epidemiological
eritrea
estaing
ethiopian
exemplary
expansionism
exponential
exxon
fixation
floated
flowers
flung
fooled
foresaw
forestall
fulfillment
graduated
guys
hans
hawkish
headscarf
hebdo
heroism
hiking
himalayas
hindering
horrendous
humble
hung
hydro
ifo
imitation
impress
incorrect
incredible
injecting
innumerable
insular
insults
intensely
iphone
justifications
kenyans
kidnapped
knesset
knowledgeable
krill
kyong
landed
lawsuit
legitimizing
leviathan
lifeblood
lifesaving
lined
listing
load
locate
logging
lone
madison
magazines
malnourished
maneuvers
mate
mauricio
medal
memoirs
mercosur
mildly
mimic
mirage
mistreatment
mouse
murderers
needlessly
nefarious
neoclassical
nigel
nonproliferation
normality
nouri
nursing
nutritious
observing
opportunistic
ore
ounce
oval
overcame
overturn
pales
passports
payoffs
petro
pisa
plaintiffs
poisoning
polite
postcommunist
predetermined
predicated
preschool
probe
programmed
progressively
prostitution
protector
psychologist
purges
quartet
rafsanjani
rays
reactive
recast
relocating
renege
repatriation
repayments
requisite
resembling
revolutionize
roiling
rumor
ruthlessly
sanguine
sarajevo
schuman
seasoned
sechin
secretaries
secretive
seehofer
seller
sequester
shoal
shoots
simplified
skillfully
sleeping
solow
sparking
spearhead
speculated
spilling
staunchly
stein
straining
subservient
suburbs
sung
susceptibility
swaraj
symbolically
symbolized
synergies
tablets
tearing
template
thirst
tories
trajectories
troublesome
trumps
tudor
unanticipated
uncoordinated
underestimating
understandings
underwriting
uneducated
unfit
unfulfilled
unparalleled
unprecedentedly
unpredictability
usable
uttar
vaccinations
validate
venue
warrants
warrior
worthless
yong
##afta
##ail
##ala
##amine
##ased
##borough
##cars
##cede
##chanted
##chon
##cient
##cists
##cribe
##cular
##cule
##dles
##ere
##fine
##fires
##fulness
##gali
##generate
##graphy
##gues
##gular
##gulated
##hetic
##ibrate
##icked
##idal
##illa
##illes
##ional
##iro
##ival
##lement
##lied
##lika
##lip
##lly
##lot
##low
##loyed
##markets
##metry
##minating
##mpt
##nah
##nai
##ncies
##night
##nsibility
##ocks
##oh
##pay
##pelled
##pense
##phy
##ppe
##prehensible
##ptic
##racing
##rah
##raying
##rifying
##rimony
##rsed
##rying
##sation
##serving
##shal
##smen
##tated
##titudes
##tization
##top
##tp
##ula
##umes
##uncing
##unes
##urg
##usk
##utrient
##vert
##wear
##yan
##zard
##zes
abetted
abysmal
accidentally
acid
acquiesce
adhered
agrarian
airbnb
alarmingly
alarmist
allay
ambivalent
anchoring
antibodies
apec
approving
artistic
assuring
astute
atlanta
attainable
authoritative
authorize
ba
bacterium
bark
bc
bell
benedict
binds
blindly
bluff
bollywood
bonanza
boot
bribe
brute
cages
calorie
campus
capitalizing
capitol
catches
cellular
christopher
cnn
colombians
communicated
competencies
complicates
connects
conquered
consciously
consequent
constrains
contending
contextual
convertible
corrective
corrupted
cowen
crashing
creeping
crossings
crystal
custom
ddt
deadliest
declares
decrees
defaulting
deflect
delegating
desirability
despots
detecting
developmental
differentiate
digits
disarm
disastrously
discernible
disclosures
distinctions
distortionary
dithering
documentation
doping
doubly
druze
durability
eastward
eib
emancipation
enablers
enlarge
enrique
entangled
evaluations
excited
fathom
fervor
fetus
fiduciary
figuring
finalized
financialization
finest
fissile
fisted
flake
flew
focal
fodder
fog
forgive
fortress
fractious
frothy
fruitful
funeral
genomic
geothermal
ghg
gifted
globalism
gospel
grabbed
grandmother
grasped
han
harmless
harmonized
harvesting
hated
hearted
holidays
homelessness
imbued
impairment
imperfections
inadequacy
inconsistency
indicative
inflammatory
inflating
inhibitors
inmates
installing
intentional
intercontinental
interfering
internationalist
interrogation
interstate
intimidated
intricate
intrinsically
irrationality
jan
journalistic
kadyrov
koreas
leeway
levant
malfeasance
manufactures
marcos
menacing
mice
midnight
misconceptions
mismanaged
mogherini
molecules
monetarist
monopolistic
moody
moroccan
navarro
ndez
nearest
needy
nemesis
nominees
noteworthy
nots
npls
numerical
oft
olds
oregon
outlet
outline
outperform
overweight
parade
parkinson
patently
percentile
performers
placement
plato
plea
plethora
podemos
potter
precautions
preferring
preoccupation
princelings
profiling
proliferate
prolonging
provisional
prudently
pseudo
publishes
pumps
puppet
purportedly
realists
realizes
rear
rebuffed
recur
recycled
redistributing
redundancy
relic
repaired
resentful
reshaped
retreated
rigging
rigorously
rk
rotating
rumored
ry
sarah
savage
scorn
searched
secessionist
sensing
shipped
shirts
shootings
shoring
silencing
singer
slippery
socrates
spate
specialize
spikes
spirited
spokesperson
stabilizers
stalls
stances
steadfast
stirred
strident
stronghold
stumbling
subscribe
sucked
suharto
sustains
tailor
tailspin
thaw
timeframe
tolls
touched
towers
tracked
translation
trolls
tumult
tunnel
tycoons
unarmed
unavailable
underdevelopment
unknowns
unofficial
unrelenting
upfront
urges
ustr
utopia
vacations
val
vegetable
veiled
vigilantes
wales
wisconsin
xiaochuan
##ading
##akened
##ale
##alienable
##anding
##ared
##ati
##aul
##aunted
##burdened
##cade
##ceive
##ceptions
##closed
##ctions
##dacity
##dar
##ddy
##dence
##dies
##duction
##ductive
##due
##emia
##eral
##erate
##feit
##fusions
##gingly
##gize
##harma
##ilization
##ined
##isan
##itarian
##iz
##ku
##lators
##lia
##lian
##lize
##loaded
##log
##mitted
##mus
##nial
##nies
##nished
##nosis
##nsive
##olia
##oni
##onomics
##oop
##oping
##ops
##owed
##pit
##ples
##plifies
##posing
##raft
##ran
##rds
##regation
##reported
##ressor
##rested
##ricious
##riting
##rtation
##shoot
##ssan
##states
##tach
##tarian
##tizing
##type
##udge
##una
##unce
##vate
##vulsion
##waves
##yev
##ym
aberration
abject
accelerator
accomplishment
adjacent
admiral
affiliation
aggravating
ahmad
alienating
alpha
amartya
amman
apples
aristotle
armaments
armenians
aroused
arunachal
asymmetries
auschwitz
baked
basics
battleground
beaches
beg
belatedly
bentham
beta
bmi
bomber
bore
boycotts
breivik
buybacks
bypassing
byproduct
canceling
capping
carved
casts
catherine
centenary
ceremonies
cheapest
chiefly
choke
claimants
classification
clinicians
cohorts
collects
commemoration
confer
confirming
conflagration
conform
confucius
contours
convincingly
cosmopolitans
courting
cubans
cunning
curbed
dampening
deductible
defiant
delors
delusions
dementia
democratize
dense
deportation
dialogues
dietary
digitized
disintegrating
dislocations
dismay
dispossessed
doldrums
doubtless
duterte
eaten
elevate
embolden
enroll
epoch
excel
executions
exhaustion
exhibition
fancy
fern
figured
flash
flourished
flux
foreseen
freezing
garnered
gear
genie
geological
glimmer
gps
greening
guarded
hacked
haitian
hastily
hasty
hat
hoax
holmes
honors
hydraulic
illustration
imaginary
impotent
incurring
inflexible
ingenious
innate
insect
institutionally
intelligentsia
interactive
intolerant
ire
issuer
jae
jawaharlal
justifiable
kicked
kitchen
lapses
launches
learns
lenist
levies
limitation
liquidation
loathing
locking
logically
loyalists
marathon
marco
methodology
midwives
misdeeds
misunderstood
mncs
moore
mourning
multiplied
myopic
necessities
nepotism
nominally
nusra
oblige
oman
oversaw
palm
pandering
patel
patrons
pdvsa
perry
pesos
phenomenal
piled
pit
plausibly
postal
preaching
premised
prescribe
priests
privatizing
protectionists
purity
quandary
radicalized
railroad
railroads
rainy
ransom
raped
recidivism
recommending
refrained
reined
renders
repetition
resented
reviewing
revitalization
rot
ruhollah
sacrosanct
scholarship
scholarships
sclerotic
sensibly
serial
showcase
shrewd
skies
smog
southeastern
sowing
spans
specify
spokesman
spratly
staked
statue
stealth
stoves
subjecting
suez
surpassing
susan
synthesis
taj
takeoff
takers
teetering
telemedicine
thread
thrived
trader
trait
transcends
treacherous
trending
triangle
truck
typhoon
undecided
uninsured
upended
upending
vanishing
viewpoint
voracious
waned
wherewithal
wikipedia
withholding
wyoming
yew
zealots
##adow
##ae
##akable
##alized
##alled
##arable
##arding
##aria
##athed
##avage
##awa
##bane
##bara
##bound
##box
##ceived
##closures
##cology
##com
##compasses
##criminating
##cyclical
##ddled
##dging
##dication
##disciplinary
##dity
##east
##eat
##economists
##ensen
##ergy
##etics
##friend
##generation
##gist
##globin
##gram
##heard
##hism
##hobia
##hra
##human
##icable
##iecki
##iens
##ife
##inge
##ishment
##itch
##ith
##iti
##ives
##izations
##jib
##jin
##lap
##lare
##lawed
##lemish
##lex
##licant
##llon
##lored
##lu
##manned
##mas
##matched
##mbing
##militarized
##mln
##moth
##mund
##nadze
##national
##nourishment
##nus
##nyi
##olved
##onable
##ope
##opened
##pb
##pen
##pitation
##place
##playing
##pond
##ponds
##poration
##putable
##raced
##rak
##rals
##rash
##rators
##real
##rillas
##rooming
##shod
##sman
##standard
##sychiatry
##teral
##tract
##triarch
##ually
##ube
##ulative
##umble
##umbling
##umps
##unct
##undell
##unism
##urf
##usting
##uth
##uy
##veloped
##vey
##vict
##vish
##volving
##vory
##western
##wig
##wood
##xious
##yad
##zawa
##zzling
accuses
achilles
affirm
afflicts
agribusiness
aide
alphabet
alternate
alto
amassed
amnesia
andme
anguish
antagonizing
artemisinin
avail
bacterial
bags
ballooning
barbarism
becker
bells
bible
biblical
bogged
brainer
bronze
buoyant
cables
chasm
cheat
chws
circus
cjd
colonization
colony
colorful
conceive
configuration
congressmen
consolation
consulate
consultative
contents
conveyed
corollary
cries
crispr
curiously
cyclone
cynically
daiichi
dash
debatable
decoupled
defendants
defusing
deliveries
denuclearize
departing
depreciations
designer
developer
deviation
di
diagnose
disaffection
discrepancies
dispose
distributive
diverge
dokdo
donation
doubles
downsides
drifting
duke
ebrd
ego
elicited
embodiment
emulated
ensued
epigenetic
erdogan
eschew
estrangement
euroskepticism
exempted
experimenting
falsely
farce
fatalities
fdr
festering
format
fraying
generators
grains
graphic
gravely
guterres
habitats
hammer
hangzhou
hardships
harshly
harvests
hatoyama
haves
hierarchies
hotspots
hotter
howard
illinois
imploded
imprudent
inconsistencies
inflame
inhabit
intel
interruption
invoicing
iq
ivf
jacob
jeopardizes
jokes
karachi
lavrov
layoffs
lays
lessen
lets
lighter
linkage
liquefied
livable
lucas
ludicrous
macierewicz
marching
maria
mastercard
medell
mediated
mediator
memoir
metaphors
mills
miraculous
misled
moderating
modernized
modus
mongering
morals
mouths
ms
mullahs
multipolarity
nail
negotiable
offended
overstate
overstretched
overtime
palo
patriot
pent
perseverance
peshawar
pilgrims
pittsburgh
pius
placate
pleas
pleasing
plumbers
plutocrats
poetry
policeman
portions
predominance
productively
promoters
prostate
punch
putative
quarrel
rafael
raged
ramp
raqqa
receptive
redirected
reinventing
remnants
renewing
renounced
repress
residency
responsiveness
restless
restraining
restriction
resuming
riders
robustly
rocky
rodrigo
ron
saber
salience
salvini
sank
scared
scrambling
secede
sensational
sensors
servant
sheds
shielded
shimon
shun
sinks
skyrocketed
smallpox
smartest
solitary
spells
spinning
splitting
sprawling
spurs
squares
stamps
stipulates
subcontinent
subset
substituting
supplant
surrendered
surrogate
tack
tales
tally
tantrum
taxis
teenage
temperament
tender
terminology
therein
thorny
tuna
unaffected
uncontrollable
unholy
uniforms
unwittingly
updating
upholds
upshot
uttered
vexing
vigilance
vividly
weights
wielded
winding
witnesses
workplaces
zoellick
##!
##"
###
##$
##%
##&
##'
##(
##)
##*
##+
##,
##-
##.
##/
##0
##1
##2
##3
##4
##5
##6
##7
##8
##9
##:
##;
##=
##?
##@
##[
##\
##]
##_
##`
##–
##‘
##“
##”
